<unk>	0
<s>	0
</s>	0
▁the	-3.38425
▁and	-3.46262
▁na	-3.92015
▁of	-4.00106
▁you	-4.14854
▁to	-4.1574
▁	-4.18018
▁is	-4.3885
▁they	-4.42182
▁a	-4.49057
a	-4.58911
▁in	-4.60302
▁them	-4.6718
▁he	-4.72685
▁that	-4.7908
▁who	-4.83802
▁allah	-4.84507
▁we	-4.85702
▁will	-4.85991
▁not	-4.8615
▁for	-4.8735
▁mwenye	-4.92066
▁it	-4.98823
▁be	-5.09824
▁ya	-5.10153
▁kwa	-5.10888
zi	-5.10968
▁have	-5.13148
▁mungu	-5.14784
▁are	-5.17348
▁their	-5.19402
▁wa	-5.2446
▁ni	-5.28878
▁those	-5.30495
▁him	-5.34226
▁from	-5.34552
▁with	-5.3616
▁your	-5.3909
▁his	-5.46941
▁god	-5.49782
▁lord	-5.51359
▁do	-5.5241
▁but	-5.54928
▁when	-5.64571
s	-5.65101
▁what	-5.67464
▁i	-5.71508
▁so	-5.72197
▁then	-5.73364
▁shall	-5.74865
o	-5.75665
▁katika	-5.75836
▁hakik	-5.79703
▁if	-5.80554
▁said	-5.82017
▁kuwa	-5.82044
▁say	-5.83072
▁on	-5.83462
▁basi	-5.83943
▁has	-5.88785
▁as	-5.91686
▁which	-5.96801
▁all	-5.98502
▁people	-5.98583
▁this	-5.99424
]	-6.02817
▁[	-6.02877
▁or	-6.11342
▁m	-6.16341
▁day	-6.16636
▁no	-6.20342
▁by	-6.20421
e	-6.21402
▁my	-6.21409
▁our	-6.21663
ni	-6.22107
▁us	-6.2246
▁there	-6.24177
▁mlezi	-6.24931
▁were	-6.24997
sema	-6.25029
▁indeed	-6.2546
▁walio	-6.25742
▁wala	-6.26875
mola	-6.31424
▁one	-6.32256
▁me	-6.33814
▁wao	-6.36663
▁watu	-6.36723
▁earth	-6.4084
▁ye	-6.41758
▁had	-6.42152
▁was	-6.42956
▁o	-6.45089
▁believe	-6.48636
▁surely	-6.50409
▁may	-6.50714
▁upon	-6.52977
▁an	-6.53513
▁would	-6.55235
▁yake	-6.58473
▁whom	-6.60553
▁before	-6.60658
▁unto	-6.61244
▁yao	-6.61324
ing	-6.64254
▁tu	-6.6493
▁among	-6.69264
▁been	-6.69494
▁good	-6.71993
▁come	-6.7233
▁yeye	-6.7272
▁made	-6.74733
▁sent	-6.74968
▁only	-6.75078
eni	-6.77471
▁nor	-6.78397
▁know	-6.78414
▁wake	-6.78857
▁did	-6.80738
ed	-6.80849
▁down	-6.81094
▁ku	-6.82206
▁any	-6.82497
▁thou	-6.84406
▁ndi	-6.87488
▁truth	-6.88318
▁most	-6.90647
▁verily	-6.91273
▁hao	-6.91809
▁juu	-6.93239
▁ila	-6.93508
▁waka	-6.94245
▁za	-6.96466
▁siku	-6.96871
▁except	-6.96946
▁at	-6.97716
▁wanao	-6.98003
▁fear	-6.9909
▁nyinyi	-7.01827
▁against	-7.03411
▁away	-7.03873
▁give	-7.05177
▁heavens	-7.07037
▁au	-7.07759
▁see	-7.07865
▁evil	-7.07882
▁out	-7.08506
▁sisi	-7.09038
▁should	-7.09292
▁make	-7.09918
▁wale	-7.10159
▁punishment	-7.11304
▁than	-7.11986
▁after	-7.12016
▁how	-7.12162
▁over	-7.12337
wa	-7.12419
▁kama	-7.13036
▁believers	-7.13078
▁signs	-7.13348
▁book	-7.13631
▁zao	-7.13786
▁some	-7.14353
▁men	-7.14354
▁messenger	-7.16243
▁u	-7.16346
▁hayo	-7.16516
▁ha	-7.18007
▁ili	-7.18363
▁life	-7.18463
▁k	-7.18798
▁other	-7.19293
▁ardhi	-7.19708
▁adhabu	-7.20641
▁wana	-7.21275
▁aliye	-7.22779
▁mi	-7.23508
▁bring	-7.23565
▁things	-7.23887
▁je	-7.23892
▁shaka	-7.23904
na	-7.23987
d	-7.24818
▁created	-7.25205
▁way	-7.25305
▁its	-7.25953
i	-7.2609
kisha	-7.26249
▁like	-7.27223
▁into	-7.27439
▁let	-7.27785
▁mimi	-7.27884
▁wako	-7.28574
▁fire	-7.29608
▁given	-7.29738
▁laki	-7.29902
liyo	-7.31501
▁wenye	-7.3339
▁yenu	-7.33907
▁can	-7.34288
▁about	-7.34368
▁turn	-7.34638
▁hu	-7.34724
▁ndiy	-7.35587
▁does	-7.36681
▁thee	-7.37292
▁take	-7.37494
▁deeds	-7.38104
▁bila	-7.39324
▁mercy	-7.40346
▁ishara	-7.40367
▁themselves	-7.40542
ongoni	-7.40551
kila	-7.40849
▁these	-7.42156
▁hearts	-7.42577
▁man	-7.42778
▁anaye	-7.42987
▁up	-7.43248
▁wangu	-7.44437
▁wata	-7.45011
▁certainly	-7.45079
▁knowledge	-7.45315
▁kutoka	-7.45459
▁akasem	-7.46323
▁worship	-7.46957
▁right	-7.47297
▁muhammad	-7.4778
nayo	-7.47916
▁every	-7.48259
▁moses	-7.48463
▁between	-7.48636
▁clear	-7.48945
▁am	-7.49808
▁ask	-7.52609
▁naye	-7.5278
▁aka	-7.52863
▁amini	-7.53515
▁such	-7.53582
▁two	-7.54062
▁came	-7.54185
▁humo	-7.5476
▁follow	-7.5492
▁reward	-7.56041
▁njia	-7.57183
▁haya	-7.57245
hath	-7.57325
▁faith	-7.57411
▁where	-7.57791
▁even	-7.5852
▁thy	-7.58544
▁knows	-7.5867
▁while	-7.58682
▁therein	-7.58754
▁back	-7.59148
▁wenu	-7.59536
▁wewe	-7.59755
▁hawa	-7.59942
▁si	-7.60172
▁mtume	-7.60234
▁kwamb	-7.6056
▁because	-7.61563
▁never	-7.61949
▁forth	-7.62203
▁prophet	-7.64796
▁haki	-7.65564
▁nao	-7.65887
▁allahs	-7.66533
▁call	-7.66828
▁revealed	-7.67698
▁whoever	-7.68324
▁hell	-7.69069
▁land	-7.69443
▁another	-7.70082
▁lo	-7.70125
▁kitabu	-7.70126
th	-7.70142
▁kabla	-7.70375
▁world	-7.70407
until	-7.7053
▁messengers	-7.71019
▁gods	-7.71072
▁kitu	-7.71675
▁yet	-7.71736
▁guidance	-7.72088
▁go	-7.72625
▁nafsi	-7.73289
▁musa	-7.73355
▁merciful	-7.7395
mo	-7.74109
▁women	-7.74447
▁hiyo	-7.74696
▁mbingu	-7.74861
▁night	-7.7519
uran	-7.75733
▁hivyo	-7.7596
▁own	-7.76196
▁la	-7.76474
▁better	-7.7704
▁others	-7.7717
▁best	-7.77648
▁cause	-7.77676
▁brought	-7.78305
▁mna	-7.78339
▁iliyo	-7.78344
eth	-7.78593
▁great	-7.78974
fanya	-7.79279
enyi	-7.79713
▁ame	-7.80024
▁mwa	-7.80509
▁whatever	-7.80591
▁time	-7.81065
wenye	-7.81411
▁send	-7.81416
▁more	-7.82048
▁angels	-7.82123
▁s	-7.82542
▁her	-7.82579
ly	-7.82666
▁baada	-7.82936
▁remember	-7.83173
▁isipo	-7.83559
▁thus	-7.83672
▁find	-7.83802
▁zenu	-7.8408
▁none	-7.84383
▁return	-7.84803
▁each	-7.84811
▁wali	-7.84957
▁nguvu	-7.85
▁disbelieve	-7.85067
▁gave	-7.85364
▁unbelievers	-7.85517
▁children	-7.86744
▁torment	-7.86859
▁pamoja	-7.87025
▁kufuru	-7.87508
▁path	-7.88024
▁true	-7.88823
▁mankind	-7.89017
st	-7.89074
livyo	-7.89722
▁hereafter	-7.90025
▁wetu	-7.9003
▁disbelievers	-7.90698
▁astray	-7.91651
▁ever	-7.91859
▁might	-7.9194
▁leave	-7.92163
▁many	-7.92621
▁whose	-7.92693
▁ikiwa	-7.92878
▁nothing	-7.93271
▁deny	-7.93525
▁water	-7.94088
▁saw	-7.94108
▁wote	-7.94202
▁place	-7.94267
▁therefore	-7.94779
▁used	-7.95123
▁witness	-7.9514
▁righteous	-7.95426
▁yaliyo	-7.95572
▁peace	-7.96681
▁zaidi	-7.96747
▁ma	-7.96926
▁waumini	-7.97062
▁mema	-7.97894
pata	-7.97909
▁mpaka	-7.98338
neither	-7.99264
▁kwake	-7.99323
▁kweli	-7.99804
▁well	-8.00255
▁could	-8.0026
▁help	-8.00352
▁seek	-8.00387
▁power	-8.00906
▁death	-8.01753
▁set	-8.02874
▁gardens	-8.03387
▁waki	-8.03693
▁hali	-8.03959
▁she	-8.04118
▁rehema	-8.04505
▁resurrection	-8.04636
▁yangu	-8.04698
yo	-8.04869
▁enter	-8.04992
▁prayer	-8.06353
▁believed	-8.06526
▁tuli	-8.06559
▁guided	-8.07221
why	-8.0731
▁become	-8.07469
▁kwani	-8.07621
▁hata	-8.08117
▁yourselves	-8.08235
▁turned	-8.08261
ever	-8.08442
▁tume	-8.09224
▁saying	-8.09409
▁promise	-8.09457
▁religion	-8.09598
▁sign	-8.09798
▁save	-8.09973
▁hii	-8.105
▁command	-8.10618
▁bad	-8.1064
▁put	-8.10689
▁soul	-8.108
▁ambay	-8.11116
▁zetu	-8.11285
▁ones	-8.12225
bali	-8.12604
▁though	-8.13043
vyo	-8.13311
▁kulik	-8.13371
mbao	-8.13703
▁mli	-8.1413
▁hands	-8.14618
▁being	-8.1472
pate	-8.14794
kwisha	-8.15019
▁pharaoh	-8.15144
▁without	-8.15546
▁now	-8.15938
▁kwenu	-8.16727
▁makafiri	-8.16825
▁alipo	-8.16825
▁son	-8.16868
▁eat	-8.17134
▁wema	-8.17229
▁himself	-8.17577
▁guide	-8.17823
▁yale	-8.18348
▁obey	-8.19125
▁msi	-8.19868
ambia	-8.20195
▁forgiveness	-8.2028
▁wise	-8.20281
▁nini	-8.20403
▁ewe	-8.20688
▁moto	-8.21079
▁yetu	-8.21208
▁bain	-8.21226
▁tell	-8.21475
in	-8.21694
▁zake	-8.2213
▁revelations	-8.22157
▁besides	-8.22321
▁vi	-8.22479
▁abraham	-8.22652
▁ana	-8.23004
▁mmoja	-8.23538
▁appointed	-8.26594
▁also	-8.26961
▁servants	-8.27085
ababu	-8.27338
▁everything	-8.27441
▁forgive	-8.27463
▁heaven	-8.27742
▁wrong	-8.27949
▁light	-8.28343
▁both	-8.28356
▁satan	-8.28526
▁lau	-8.28711
▁keep	-8.28837
▁wealth	-8.28847
▁mtu	-8.28858
▁behind	-8.28926
▁show	-8.28996
▁b	-8.29107
▁sin	-8.29284
▁forgiving	-8.29557
▁taste	-8.2967
▁e	-8.29742
▁mighty	-8.30014
▁order	-8.31443
▁whosoever	-8.3157
▁mbali	-8.32208
▁wanawake	-8.32302
▁word	-8.33053
po	-8.33061
▁together	-8.33519
▁kabisa	-8.33861
▁yako	-8.33901
▁chastisement	-8.34095
▁concerning	-8.34708
▁hikima	-8.34739
▁painful	-8.34756
▁akhera	-8.3515
▁alone	-8.35241
▁wrongdoers	-8.3547
▁hear	-8.35513
▁yakini	-8.35736
▁above	-8.36167
▁dead	-8.36337
▁paradise	-8.36337
▁ndiyo	-8.36366
▁able	-8.36713
▁comes	-8.37231
▁belongs	-8.37447
▁mitume	-8.3778
▁apostle	-8.37789
▁ibrahim	-8.38178
▁full	-8.38244
▁nyoyo	-8.38503
▁bora	-8.38517
▁maji	-8.38675
▁wame	-8.38682
▁done	-8.38683
▁eyes	-8.38697
▁think	-8.38878
▁cha	-8.39411
▁baba	-8.39433
▁verses	-8.40143
▁kurehemu	-8.403
▁neema	-8.40303
▁unjust	-8.40316
ajili	-8.40419
▁bear	-8.40528
▁wengi	-8.40605
▁speak	-8.40685
wards	-8.40921
▁mbele	-8.41104
▁ki	-8.41237
▁hand	-8.4203
▁cannot	-8.42493
▁ali	-8.42618
▁sins	-8.4264
▁through	-8.42647
ala	-8.42837
▁doubt	-8.42891
▁kwao	-8.43622
▁yule	-8.43705
▁sawa	-8.4406
▁anything	-8.4408
▁creation	-8.44195
▁mfano	-8.44737
tenda	-8.45014
▁waja	-8.4509
▁father	-8.45102
▁ahadi	-8.45142
▁nay	-8.45173
▁usiku	-8.45193
▁fathers	-8.45291
▁nanyi	-8.46308
▁malipo	-8.47014
▁kati	-8.47697
▁destroyed	-8.47774
▁left	-8.47841
▁walipo	-8.47982
▁wills	-8.47996
▁die	-8.48066
▁understand	-8.4829
▁khabari	-8.48306
▁fight	-8.48785
▁ie	-8.49098
we	-8.49339
▁mwao	-8.49638
▁love	-8.49724
▁etc	-8.50002
▁ulio	-8.50009
▁nchi	-8.50086
▁promised	-8.50114
▁vya	-8.5038
pana	-8.50519
▁truly	-8.50714
▁wazi	-8.50872
▁pa	-8.51006
ia	-8.51086
▁tuna	-8.51135
▁jua	-8.51142
▁praise	-8.51231
▁brother	-8.51728
y	-8.51754
▁hapa	-8.51788
▁near	-8.51893
▁manifest	-8.52175
▁mali	-8.52243
▁nyuma	-8.52708
▁thing	-8.52713
▁raised	-8.52962
▁part	-8.53259
▁aliyo	-8.53505
▁mbinguni	-8.53899
▁sky	-8.53909
▁tidings	-8.53923
takuwa	-8.54196
▁knowing	-8.54761
▁hour	-8.54852
▁matter	-8.54854
▁desire	-8.54897
▁aware	-8.55198
▁recompense	-8.55849
▁lie	-8.56073
t	-8.56221
▁mki	-8.56599
▁spend	-8.56813
▁kiyama	-8.5687
▁tukawa	-8.57444
▁behold	-8.57513
▁malaika	-8.57605
▁harm	-8.58176
navyo	-8.58234
▁zilizo	-8.58573
to	-8.5874
▁uwongofu	-8.5887
▁wasio	-8.58944
▁found	-8.59032
▁called	-8.59495
▁cast	-8.59623
▁chochote	-8.59845
▁disbelieved	-8.59925
▁ata	-8.59943
▁mambo	-8.60763
▁walikuwa	-8.6087
▁end	-8.61018
ye	-8.61028
▁error	-8.61599
▁nation	-8.62059
▁first	-8.62232
▁just	-8.62434
▁taken	-8.62577
▁anyone	-8.62714
▁kubwa	-8.62947
▁live	-8.6304
▁hivi	-8.63067
▁rivers	-8.63194
▁seen	-8.63498
▁means	-8.63521
▁thereof	-8.63645
▁judgment	-8.64243
▁wives	-8.64258
▁wish	-8.64636
▁firauni	-8.64897
▁judge	-8.65151
▁mwisho	-8.65163
▁fadhila	-8.65274
▁sons	-8.65306
▁wenyewe	-8.65594
▁scripture	-8.65649
▁told	-8.65684
▁lest	-8.65865
est	-8.65916
▁tuka	-8.66229
▁nayo	-8.66321
▁hawata	-8.66358
▁muda	-8.66718
▁hapo	-8.66786
▁amri	-8.66846
▁little	-8.66967
▁much	-8.6702
urani	-8.6706
▁grace	-8.67089
of	-8.67338
▁wanapo	-8.67395
▁denied	-8.67462
▁mara	-8.67497
▁account	-8.67612
▁news	-8.67723
▁woe	-8.67899
takaye	-8.67935
▁off	-8.67958
▁mountains	-8.68009
▁drink	-8.68072
▁israel	-8.68104
▁lies	-8.68195
▁trust	-8.68307
▁provision	-8.68412
▁akawa	-8.68452
▁already	-8.68612
▁amtakaye	-8.68653
ka	-8.69242
▁jahannamu	-8.69259
▁straight	-8.6955
▁last	-8.69559
▁gives	-8.69575
▁again	-8.69591
▁forbidden	-8.69591
▁covenant	-8.69798
▁far	-8.69868
▁till	-8.70165
▁kujua	-8.70339
▁ujira	-8.70343
▁truthful	-8.70481
▁wawili	-8.70672
▁noah	-8.7113
ko	-8.71244
▁faces	-8.71247
▁exalted	-8.71296
whether	-8.71439
▁aya	-8.71469
▁macho	-8.72333
▁desires	-8.72344
▁wronged	-8.72456
▁took	-8.72481
▁term	-8.72801
▁bounty	-8.72977
▁believing	-8.72979
▁huo	-8.73079
▁mjuzi	-8.73149
▁words	-8.73514
▁islam	-8.73687
▁motoni	-8.74163
▁name	-8.74597
▁blessings	-8.74655
▁dunia	-8.74685
▁mikono	-8.74977
▁huu	-8.74977
takapo	-8.75072
▁warn	-8.75377
▁pay	-8.75475
▁ndani	-8.76037
ual	-8.7617
▁amba	-8.76308
▁garden	-8.76308
▁sea	-8.7651
▁mol	-8.76694
▁kheri	-8.76839
▁mwingi	-8.77195
▁severe	-8.77258
▁shetani	-8.77377
▁warner	-8.77397
▁partners	-8.77551
▁souls	-8.77701
▁works	-8.7788
▁adam	-8.77921
▁vyao	-8.77992
▁associate	-8.78003
the	-8.78031
▁uwongo	-8.78188
▁flow	-8.78329
▁yeyote	-8.78553
▁soon	-8.78675
▁dini	-8.78838
▁sun	-8.79506
▁noble	-8.79665
▁hold	-8.79694
▁chungu	-8.79866
▁nyumba	-8.80036
▁dhaahiri	-8.80391
▁wengine	-8.80413
▁sala	-8.80641
▁allknowing	-8.80669
aumu	-8.80729
▁provided	-8.80906
▁look	-8.80997
▁jambo	-8.81136
▁vilio	-8.81136
▁reject	-8.81554
came	-8.81687
▁face	-8.81967
▁zi	-8.82018
▁toward	-8.82041
▁worlds	-8.82103
▁tena	-8.82467
sha	-8.82492
▁vile	-8.82506
▁receive	-8.82523
▁moja	-8.82645
▁wakawa	-8.8309
▁watakuwa	-8.83762
▁sight	-8.83989
▁patient	-8.84227
▁nasi	-8.84639
▁bestowed	-8.84717
▁yatenda	-8.84866
▁mwenu	-8.85236
▁mkubwa	-8.85547
▁authority	-8.85629
▁message	-8.8567
▁art	-8.85676
▁human	-8.85682
▁reminder	-8.86218
▁hukumu	-8.86381
soever	-8.86404
▁work	-8.86599
▁followed	-8.86608
▁pia	-8.86613
▁duniani	-8.86821
▁grant	-8.86928
▁allwise	-8.87006
▁asked	-8.87018
aadhi	-8.87568
▁kwetu	-8.87698
▁enemy	-8.87903
▁maovu	-8.88003
apo	-8.88222
▁wanaume	-8.88333
weka	-8.88481
▁huyu	-8.88506
▁rejected	-8.88513
very	-8.88568
▁heart	-8.88578
▁days	-8.88704
▁wanasema	-8.88895
▁unseen	-8.89004
▁wife	-8.89411
▁wisdom	-8.89612
▁refuge	-8.89698
▁wangeli	-8.89768
▁greater	-8.89852
▁maisha	-8.90243
▁commanded	-8.90465
tia	-8.90481
▁favour	-8.90575
▁ama	-8.90751
▁gone	-8.90866
▁kind	-8.91226
▁yote	-8.91252
▁family	-8.91465
▁joseph	-8.91481
▁morning	-8.91527
▁mchana	-8.91897
▁share	-8.91988
▁maneno	-8.92101
▁swear	-8.92168
▁lot	-8.92631
▁tungeli	-8.92799
▁namna	-8.92815
▁stand	-8.92982
mba	-8.93179
▁abode	-8.93195
▁blind	-8.93613
▁punish	-8.93727
▁hearing	-8.93996
▁falsehood	-8.94038
▁pewa	-8.9412
▁al	-8.94193
▁blessed	-8.94201
▁house	-8.94263
▁kusamehe	-8.94446
▁returned	-8.94506
▁knew	-8.94616
▁re	-8.94627
▁accept	-8.9476
▁makes	-8.94861
▁guides	-8.95113
▁kum	-8.95144
▁knower	-8.95155
▁fact	-8.95258
▁duty	-8.95271
▁karibu	-8.95417
▁hypocrites	-8.95505
▁regard	-8.95567
▁prostrate	-8.95695
▁remain	-8.95713
▁mcheni	-8.9594
▁seized	-8.96372
▁madhaalimu	-8.9646
▁lawful	-8.96531
▁apostles	-8.96775
▁wapo	-8.97033
▁bustani	-8.97387
▁avail	-8.97445
▁kilicho	-8.97453
▁measure	-8.97661
▁food	-8.97963
▁grieve	-8.98045
▁listen	-8.98068
▁whatsoever	-8.9826
▁reach	-8.98275
▁glad	-8.9832
▁benefit	-8.98413
▁old	-8.98589
▁dhambi	-8.98651
▁kidogo	-8.99099
zo	-8.99117
▁rain	-8.99283
r	-8.9939
▁abide	-8.99514
▁kufa	-8.99555
▁pass	-8.99608
▁faithful	-8.99732
▁disbelief	-8.99773
▁kwako	-8.99826
apa	-8.99864
▁yenye	-9.00121
▁present	-9.00315
▁free	-9.0033
▁dhulumu	-9.00339
▁kill	-9.00354
▁lords	-9.00454
▁long	-9.00561
▁destroy	-9.00912
▁high	-9.00936
▁fanya	-9.01276
▁due	-9.01433
▁mary	-9.0171
▁ndugu	-9.01794
▁anajua	-9.01937
▁muslims	-9.02046
▁remembrance	-9.02165
▁willed	-9.0221
▁serve	-9.0232
▁jinn	-9.02434
▁losers	-9.02631
▁under	-9.02666
▁hai	-9.02911
▁zamani	-9.03224
▁parents	-9.03329
▁prepared	-9.0333
fika	-9.03407
▁toka	-9.03602
▁jin	-9.03663
▁forever	-9.03888
▁judgement	-9.04033
▁within	-9.04182
▁permission	-9.04259
▁earned	-9.04304
▁known	-9.04331
▁moon	-9.0437
▁having	-9.04385
▁vitendo	-9.04495
▁doing	-9.04607
▁guardian	-9.04858
▁ume	-9.04997
▁caused	-9.05
▁wait	-9.05007
▁prophets	-9.05456
▁yanayo	-9.05469
▁yusuf	-9.0574
▁years	-9.05997
▁cattle	-9.06163
▁guilty	-9.06406
▁polytheists	-9.06449
▁seven	-9.06862
▁according	-9.06904
▁riziki	-9.07004
▁proofs	-9.07112
▁thanks	-9.07149
▁pray	-9.07213
▁ilimu	-9.07262
▁act	-9.07676
▁easy	-9.07854
▁glory	-9.07857
▁fruits	-9.07877
▁says	-9.07925
teremsha	-9.086
▁fall	-9.08651
▁vyote	-9.0874
er	-9.08768
enye	-9.08791
▁mta	-9.08806
▁sustenance	-9.08838
▁recite	-9.08869
▁something	-9.08938
▁jews	-9.09119
ana	-9.09255
▁watoto	-9.09453
▁brothers	-9.09459
▁houses	-9.0949
▁city	-9.09589
▁must	-9.09601
nless	-9.09754
▁jesus	-9.0984
▁angeli	-9.09854
▁walimwengu	-9.0995
▁un	-9.10346
▁commit	-9.10371
▁living	-9.10648
▁passed	-9.10945
▁turns	-9.11109
▁party	-9.11122
▁repentance	-9.11334
▁hast	-9.11338
▁homes	-9.11373
▁hidden	-9.11584
▁witnesses	-9.1162
▁strong	-9.11641
▁taka	-9.11656
▁lead	-9.11738
▁throne	-9.11739
▁yoyote	-9.11837
▁guard	-9.12026
fuata	-9.12324
▁revelation	-9.12529
▁mlinzi	-9.12858
▁mito	-9.1299
▁mbili	-9.13016
▁hide	-9.133
▁too	-9.13339
▁nawe	-9.13453
▁justice	-9.13634
lo	-9.13803
▁saved	-9.13842
ieni	-9.13859
▁same	-9.13899
▁dust	-9.14643
▁few	-9.14671
▁get	-9.14674
▁hoj	-9.14783
▁repent	-9.14862
▁huko	-9.15026
▁naught	-9.15206
on	-9.15349
▁folk	-9.15661
▁patience	-9.15721
▁hasten	-9.15772
▁heard	-9.15886
▁mother	-9.1593
▁replied	-9.15986
▁change	-9.16197
▁firm	-9.1621
▁warning	-9.16359
▁person	-9.16458
▁ufalme	-9.16518
▁granted	-9.16926
▁answer	-9.1699
▁going	-9.17083
▁taught	-9.17863
▁thamud	-9.17917
▁reckoning	-9.18005
▁rather	-9.18397
▁evildoers	-9.18413
▁establish	-9.18973
licho	-9.19197
▁backs	-9.19313
▁kwisha	-9.19318
▁create	-9.19332
▁protector	-9.19688
▁wakosefu	-9.1991
▁respite	-9.20517
▁darkness	-9.20578
▁conceal	-9.20618
▁increase	-9.2077
bu	-9.20926
▁pure	-9.21103
▁suffer	-9.2119
siyo	-9.21234
▁dispute	-9.21295
▁mka	-9.21539
▁kingdom	-9.21705
▁aught	-9.21712
▁open	-9.21727
▁miungu	-9.21848
▁heed	-9.21907
▁siri	-9.22226
▁sufficient	-9.22239
▁single	-9.223
▁mipaka	-9.22409
▁pleased	-9.22623
ic	-9.22733
▁theirs	-9.22781
▁d	-9.22832
▁terrible	-9.22864
▁went	-9.23053
▁grateful	-9.2312
▁belong	-9.23176
▁produce	-9.23212
acha	-9.23222
▁lost	-9.2329
▁mwana	-9.23606
▁placed	-9.23672
▁recited	-9.23808
▁nime	-9.23844
▁huy	-9.2386
▁saa	-9.2392
▁sacred	-9.2399
▁nabii	-9.24041
▁plain	-9.24065
▁accepted	-9.24128
▁admonition	-9.24185
▁please	-9.24245
▁assuredly	-9.24263
▁ati	-9.2448
▁still	-9.24497
▁prayers	-9.24542
▁along	-9.24865
nazo	-9.25108
▁excellent	-9.25127
▁admit	-9.25244
▁maghfira	-9.25272
▁kuamini	-9.25319
kuwa	-9.25342
▁delivered	-9.25517
▁ham	-9.25519
ambiwa	-9.25531
▁una	-9.25589
▁cry	-9.26164
▁kusikia	-9.2619
▁faithless	-9.26338
▁mwonyaji	-9.26441
▁apart	-9.26565
▁zote	-9.26735
▁hope	-9.26883
lipo	-9.26888
▁hakuwa	-9.26964
▁chosen	-9.27182
▁tuta	-9.27255
▁pious	-9.27475
▁wachamngu	-9.27522
▁makundi	-9.27635
▁hawaku	-9.27835
amini	-9.2785
▁generations	-9.27883
▁burden	-9.2792
▁asiye	-9.27925
▁secure	-9.27954
▁doom	-9.27964
▁liars	-9.27992
▁allmighty	-9.28071
▁kuja	-9.28247
▁helper	-9.28358
▁spread	-9.28438
▁fast	-9.28485
▁want	-9.28488
▁jamaa	-9.28553
▁home	-9.28627
▁kauli	-9.2867
▁nuhu	-9.28674
▁invoke	-9.28919
▁mji	-9.28949
▁alikuwa	-9.29027
▁ears	-9.29107
▁kundi	-9.29175
▁thereafter	-9.29307
▁ole	-9.29323
so	-9.2942
▁certain	-9.2955
▁allforgiving	-9.29581
▁charity	-9.29589
▁huwa	-9.29842
▁around	-9.29879
▁submit	-9.29945
▁today	-9.2998
▁khofu	-9.30113
▁chini	-9.30645
▁tree	-9.30731
▁evidence	-9.30751
▁l	-9.30759
▁female	-9.3076
▁perhaps	-9.30804
▁town	-9.3082
▁holy	-9.30825
▁kudhulumu	-9.30871
▁njema	-9.3095
▁leo	-9.31105
▁watakapo	-9.3111
▁righteousness	-9.31125
▁mos	-9.31283
▁case	-9.31416
▁akili	-9.31425
ehemu	-9.31498
jua	-9.31555
▁reveal	-9.31572
▁consider	-9.31636
▁understanding	-9.31713
▁deliver	-9.31895
▁raise	-9.31916
iwa	-9.31927
▁seeking	-9.31927
▁hard	-9.32082
▁msamaha	-9.32499
▁rest	-9.32534
▁speech	-9.32646
▁gather	-9.32689
▁dear	-9.32697
▁idhini	-9.32702
▁blame	-9.32751
▁meet	-9.32848
▁here	-9.33013
▁companions	-9.33042
▁hisabu	-9.33285
▁washirikina	-9.33319
▁ime	-9.33403
▁uovu	-9.33456
▁knoweth	-9.3347
▁hatuku	-9.33502
taka	-9.33551
▁marejeo	-9.33598
watakao	-9.33657
▁killed	-9.33747
ezi	-9.3389
▁beneath	-9.34184
▁sinners	-9.34306
▁pale	-9.34399
▁friends	-9.34557
▁curse	-9.34793
▁false	-9.34896
▁protect	-9.34903
▁wapa	-9.34972
▁milima	-9.35007
▁matunda	-9.35028
▁bestow	-9.35132
▁magic	-9.35189
▁number	-9.35253
▁fruit	-9.35479
▁mohammed	-9.3551
▁daughters	-9.35597
▁milele	-9.35671
▁cut	-9.3579
▁during	-9.35887
▁thought	-9.35902
▁wrath	-9.36153
ue	-9.36161
▁idols	-9.36185
▁provide	-9.36456
▁portion	-9.36459
▁three	-9.36489
▁dwell	-9.36533
▁kil	-9.36598
▁li	-9.36633
▁muamini	-9.36635
▁tutawa	-9.36681
▁decree	-9.36705
▁group	-9.3678
▁thereby	-9.36904
▁reached	-9.3696
▁wanyama	-9.37008
▁saba	-9.37069
▁secret	-9.37077
▁gracious	-9.37092
▁woman	-9.37133
▁mme	-9.3724
▁oaths	-9.37343
si	-9.37407
▁retribution	-9.3746
▁test	-9.37609
▁nami	-9.37731
▁fair	-9.37871
▁wakati	-9.38288
itokay	-9.38576
▁established	-9.38587
▁drive	-9.38681
▁creatures	-9.38911
▁example	-9.39431
▁affair	-9.39432
▁wafanya	-9.39525
▁touch	-9.39543
▁stay	-9.39547
▁vizuri	-9.39788
▁kufany	-9.39863
▁wherea	-9.39915
▁possess	-9.39973
▁nuru	-9.4012
▁itakuwa	-9.40226
ingiza	-9.40269
▁confirm	-9.40291
▁kina	-9.40342
▁hawana	-9.40419
▁victory	-9.40477
▁pleases	-9.40687
▁seeing	-9.40764
▁godfearing	-9.40796
ngeli	-9.41062
▁enemies	-9.41136
nayajua	-9.41158
▁instead	-9.41203
▁penalty	-9.41477
▁friend	-9.41809
▁inform	-9.41887
iti	-9.42043
▁either	-9.42534
▁ungrateful	-9.42807
▁strive	-9.42842
▁ordained	-9.42868
▁israili	-9.42892
▁nyooka	-9.43306
▁imani	-9.43727
okoa	-9.43815
▁cried	-9.439
▁nyu	-9.43919
▁child	-9.43956
▁strike	-9.44248
▁feed	-9.44261
▁ascribe	-9.44285
▁favor	-9.44495
▁age	-9.44549
▁received	-9.44761
▁presence	-9.44953
▁mwanamke	-9.45131
▁arrogant	-9.45267
▁hana	-9.45293
▁proclaim	-9.45414
▁wherefore	-9.45671
u	-9.45893
▁disgrace	-9.45954
es	-9.46079
▁grow	-9.46152
▁pleasure	-9.46383
▁steadfast	-9.46732
▁ipo	-9.46944
▁umma	-9.4699
▁ujuzi	-9.47097
▁ill	-9.47389
▁huku	-9.47436
▁monotheism	-9.47459
▁torah	-9.4752
▁ukumbusho	-9.47641
▁amani	-9.47843
▁usi	-9.47933
▁state	-9.48144
▁transgressors	-9.48247
▁side	-9.48249
▁gathered	-9.48311
▁haku	-9.4839
▁hawakuwa	-9.48546
▁wamo	-9.48741
▁waongo	-9.48906
▁zangu	-9.48933
it	-9.49045
ji	-9.49046
ply	-9.49115
▁anapo	-9.49125
▁escape	-9.49289
▁belied	-9.49342
▁hawajui	-9.49495
ifanya	-9.49539
▁favours	-9.49552
▁loss	-9.49657
▁allmerciful	-9.4966
▁offspring	-9.49669
▁proof	-9.4969
▁fulfilled	-9.4971
▁led	-9.49765
▁bow	-9.49771
▁wicked	-9.49987
ver	-9.50159
▁walk	-9.50169
▁watadumu	-9.5026
▁coming	-9.50305
▁marry	-9.50432
▁mwanaadamu	-9.5059
▁grievous	-9.50736
▁proud	-9.50738
▁poor	-9.50779
▁feet	-9.50784
bora	-9.50851
▁strength	-9.51077
▁mnay	-9.51145
▁atawa	-9.51159
▁four	-9.51193
▁mama	-9.51361
▁mno	-9.51563
▁kali	-9.51713
▁uki	-9.51861
▁jueni	-9.51918
▁aaron	-9.51919
▁drowned	-9.5193
▁beside	-9.51965
▁mention	-9.52015
▁enjoy	-9.52048
▁kuona	-9.52252
▁clay	-9.52289
▁upotovu	-9.52341
▁jinns	-9.52487
▁everlasting	-9.52675
▁makaazi	-9.52677
▁yupo	-9.52687
▁yourself	-9.53085
▁decreed	-9.53156
▁war	-9.53167
▁spirit	-9.53295
▁whoso	-9.53388
and	-9.53441
▁upotofu	-9.53441
▁kept	-9.53836
▁helped	-9.53928
▁breasts	-9.5393
fanye	-9.5401
▁trial	-9.54248
▁meeting	-9.54391
▁warned	-9.54444
▁tukam	-9.54466
▁slaves	-9.54503
▁least	-9.54599
▁corruption	-9.546
▁vain	-9.54601
▁throw	-9.54904
▁observe	-9.55051
▁afraid	-9.55054
▁mnao	-9.55058
▁udongo	-9.55191
▁enjoyment	-9.55417
▁respect	-9.55434
▁iwe	-9.55584
▁forget	-9.55594
▁pita	-9.55615
▁wishes	-9.55796
▁mauti	-9.55972
▁journey	-9.56106
▁uwe	-9.56168
▁reason	-9.56213
▁belief	-9.56216
ingeli	-9.5625
▁radhi	-9.56394
▁mwezi	-9.56465
▁wind	-9.56518
▁wilt	-9.56566
▁kule	-9.56748
▁kwanza	-9.56803
▁ways	-9.56909
▁solomon	-9.56993
▁christians	-9.57001
▁asubuhi	-9.57163
▁vilivyo	-9.57261
▁shahidi	-9.57364
toka	-9.57453
▁waiting	-9.57583
zazi	-9.57617
muabudu	-9.57656
▁vyenu	-9.57764
▁worshipped	-9.57772
▁peponi	-9.58154
▁fighting	-9.58154
▁affairs	-9.58187
▁zipo	-9.58242
▁deed	-9.58265
▁mim	-9.58313
▁mothers	-9.58354
▁lolote	-9.58369
▁mawaidha	-9.58369
▁tulipo	-9.58446
▁inherit	-9.58564
▁pepo	-9.58587
muamini	-9.58748
▁toba	-9.58753
▁record	-9.58784
▁forbid	-9.58991
▁attain	-9.59257
▁property	-9.59387
mwambia	-9.59428
▁ubaya	-9.59446
pewa	-9.5948
▁answered	-9.59547
▁huend	-9.59634
▁wage	-9.59752
▁small	-9.59783
▁needy	-9.59824
▁awe	-9.60079
▁glorify	-9.60211
▁ourselves	-9.60211
▁wanaafiki	-9.60412
▁gani	-9.60421
▁loves	-9.60661
▁wrongdoing	-9.60669
▁making	-9.6067
▁perform	-9.60782
▁subiri	-9.60946
▁vita	-9.60993
▁hardship	-9.61095
▁arrahman	-9.61241
▁twain	-9.6145
▁deal	-9.61483
worldly	-9.61604
un	-9.61649
▁pahal	-9.61759
▁try	-9.61794
▁mbaya	-9.6181
chukua	-9.61872
▁vyake	-9.61878
▁ikanusha	-9.62049
amrisha	-9.62304
▁causes	-9.62474
▁male	-9.6249
▁slay	-9.62581
▁kwangu	-9.62591
▁kinds	-9.62593
▁remove	-9.62743
neno	-9.62934
hukumu	-9.62955
▁offer	-9.63054
cho	-9.63078
▁zako	-9.63135
▁vipi	-9.63305
dhulumu	-9.63329
▁months	-9.63348
▁beneficent	-9.63557
ona	-9.63568
▁kulia	-9.63699
▁salama	-9.63859
▁wowote	-9.63984
▁read	-9.63987
▁carry	-9.63996
▁ingeli	-9.64013
▁ipi	-9.64182
▁yes	-9.64234
▁sees	-9.64345
▁manner	-9.64476
inacho	-9.64485
isha	-9.64657
▁vitimbi	-9.64843
▁lay	-9.64857
▁majumba	-9.65059
▁alif	-9.6506
▁vitu	-9.65082
▁reflect	-9.65121
▁considered	-9.65207
▁believer	-9.65234
▁ji	-9.65267
▁beyond	-9.65281
▁aki	-9.65287
▁hurt	-9.65367
▁muweza	-9.655
likuwa	-9.65562
▁mnapo	-9.65587
▁fungu	-9.65704
▁ease	-9.65725
▁makosa	-9.65754
▁helpers	-9.65796
▁akam	-9.65919
▁follows	-9.65985
▁plan	-9.6602
▁deaf	-9.66105
▁hizi	-9.66211
▁orphans	-9.66334
▁mkono	-9.66444
dhani	-9.66544
▁bondmen	-9.66584
leta	-9.66916
▁enjoin	-9.6693
sifa	-9.66946
▁weak	-9.66987
▁roho	-9.67024
▁matamanio	-9.67024
▁mwema	-9.67025
▁gain	-9.67069
▁lam	-9.6715
though	-9.67242
zuilia	-9.67248
▁standing	-9.67521
▁course	-9.67555
▁evening	-9.67711
▁mwenyewe	-9.67779
ume	-9.6778
less	-9.67894
▁walinzi	-9.6791
▁followers	-9.67945
▁close	-9.67982
▁servant	-9.68048
▁disobey	-9.68119
▁zaka	-9.68177
▁bones	-9.68376
▁turning	-9.68825
▁evidences	-9.68869
▁uadilifu	-9.69079
asi	-9.69652
▁rafiki	-9.69706
▁story	-9.69706
▁injustice	-9.69715
▁blood	-9.69722
▁wherewith	-9.69733
▁recall	-9.69735
▁hilo	-9.69737
▁unaware	-9.69806
▁clouds	-9.69911
▁feel	-9.70036
▁sure	-9.70141
▁moyo	-9.70169
▁subjected	-9.70196
▁jacob	-9.70208
▁king	-9.70254
ie	-9.70488
▁angel	-9.70507
▁cursed	-9.70721
▁stars	-9.70735
pokea	-9.70905
▁destination	-9.71074
▁believes	-9.71168
▁ad	-9.71241
▁ships	-9.71278
▁mkali	-9.71541
▁mount	-9.71976
▁myself	-9.71999
▁hosts	-9.72173
▁lake	-9.72254
▁starehe	-9.72309
▁mahali	-9.7241
▁idolaters	-9.72525
wafikia	-9.72542
▁limits	-9.72543
▁slave	-9.72587
mtuma	-9.72805
▁adui	-9.72826
▁mu	-9.72879
▁kushinda	-9.72882
▁favors	-9.72926
▁piety	-9.72928
▁ka	-9.72974
▁once	-9.73093
lilio	-9.73186
▁bahari	-9.73217
▁wajia	-9.73357
▁makubwa	-9.73405
▁community	-9.73417
▁ignorant	-9.7345
▁ch	-9.73459
uestioned	-9.73495
▁birds	-9.73518
▁kanusha	-9.73563
▁viumbe	-9.73637
▁thousand	-9.73869
▁descendants	-9.7387
▁ukawa	-9.73907
▁aside	-9.7395
▁past	-9.73975
▁nyama	-9.74037
▁unao	-9.74056
teremshia	-9.74066
elekea	-9.74128
▁names	-9.74342
▁liar	-9.74706
▁sinful	-9.74796
▁chake	-9.7483
weza	-9.74914
▁companion	-9.74956
▁washirika	-9.75082
▁books	-9.75305
▁inspired	-9.75314
▁everyone	-9.75355
▁teremshwa	-9.75437
▁miji	-9.75445
▁kusema	-9.75544
▁law	-9.75553
jumbe	-9.7574
▁david	-9.75776
▁ikawa	-9.759
pote	-9.75901
▁remained	-9.76012
▁forward	-9.76066
▁utter	-9.76121
▁clearly	-9.76172
kufuru	-9.76207
▁former	-9.76255
▁supreme	-9.76258
bustani	-9.76258
▁dhiki	-9.76258
▁sincere	-9.76461
▁chakula	-9.76501
▁mimea	-9.76506
▁compassionate	-9.76753
wi	-9.77029
▁almighty	-9.77243
▁communications	-9.77254
▁upande	-9.77266
▁nations	-9.77365
▁hum	-9.77534
▁real	-9.77598
▁isaac	-9.77719
▁running	-9.77725
▁tuliwa	-9.77826
▁mnasema	-9.77864
▁pardon	-9.77984
▁purify	-9.78081
▁explain	-9.78111
▁umba	-9.78113
▁yachuma	-9.78162
▁seem	-9.78184
toa	-9.7872
▁mind	-9.78766
▁therewith	-9.78816
fanikiwa	-9.78936
▁maadui	-9.78954
▁majeshi	-9.78965
▁uchawi	-9.78983
▁wants	-9.79072
▁entered	-9.7931
▁tamaa	-9.79453
▁yours	-9.79525
for	-9.79595
▁uweza	-9.79603
▁thankful	-9.79699
▁virtuous	-9.79702
▁waislamu	-9.79722
▁penda	-9.79841
▁sura	-9.79853
lete	-9.79886
▁mbo	-9.7992
waambie	-9.80059
▁yu	-9.80171
▁t	-9.80181
▁mischief	-9.80204
▁break	-9.80468
ingia	-9.80506
▁appoint	-9.80599
▁weight	-9.80608
▁mweny	-9.80769
▁jihad	-9.8077
▁creator	-9.80907
uestion	-9.8094
▁ukiwa	-9.81002
▁wakiwa	-9.81092
▁support	-9.81096
▁matters	-9.81188
▁boiling	-9.81231
potovu	-9.81366
▁oneness	-9.81369
▁treasure	-9.81647
▁majini	-9.82004
▁distress	-9.82116
▁madhambi	-9.82237
▁masikini	-9.82237
▁seize	-9.82354
uhai	-9.82455
▁mti	-9.82458
▁belie	-9.82553
takuja	-9.82626
▁ruin	-9.82729
▁dominion	-9.82752
▁sought	-9.82762
▁powerful	-9.82768
za	-9.82834
▁miguu	-9.83017
▁approach	-9.83023
▁po	-9.83054
dwellers	-9.83186
▁rejoice	-9.83195
▁giving	-9.83395
▁greatest	-9.83404
▁touched	-9.83593
▁dwelling	-9.8365
▁testify	-9.8379
▁ile	-9.83868
▁stayed	-9.83955
fikia	-9.84168
kanusha	-9.84223
▁heavy	-9.84313
shika	-9.84314
▁need	-9.84366
▁complete	-9.84479
▁hili	-9.84582
zikanusha	-9.8471
▁allhearing	-9.84838
▁prescribed	-9.84866
▁yafanya	-9.84868
▁times	-9.84955
▁cometh	-9.85065
h	-9.85145
▁kwayo	-9.85204
▁vouchsafe	-9.85367
▁profit	-9.85423
▁draw	-9.85542
▁nyengine	-9.85598
▁righteously	-9.85631
▁ametakasika	-9.85633
▁kushukuru	-9.85703
gapi	-9.85728
▁sana	-9.85775
▁fought	-9.85904
▁wapi	-9.85945
▁vyema	-9.86432
▁successful	-9.86462
▁likeness	-9.86494
▁honour	-9.86497
mwomba	-9.86595
▁dawn	-9.86602
▁warnings	-9.86606
▁invent	-9.86606
▁ac	-9.86628
▁ghaibu	-9.86701
▁write	-9.87009
▁destruction	-9.87132
▁blessing	-9.87173
▁marriage	-9.87509
▁committed	-9.87519
▁befall	-9.87522
▁tukamp	-9.87564
▁decision	-9.87699
▁ayat	-9.87732
▁maalumu	-9.8778
▁chemchem	-9.8778
▁maryamu	-9.87792
toe	-9.87811
tukuka	-9.87842
lisha	-9.87954
▁ushahidi	-9.88051
▁suddenly	-9.8807
▁infidels	-9.88087
▁flesh	-9.881
▁firmly	-9.88133
▁purpose	-9.88204
▁new	-9.88251
▁ancients	-9.88266
▁oath	-9.88294
▁mazuri	-9.88335
▁fears	-9.88365
▁associates	-9.8839
▁upright	-9.88561
omba	-9.88587
▁muumini	-9.88597
▁uchafu	-9.88606
▁females	-9.88676
umba	-9.88947
▁yateremsha	-9.88965
▁wakiyatenda	-9.88993
▁kwend	-9.89039
▁else	-9.89146
▁miaka	-9.89153
▁devils	-9.89194
▁patiently	-9.89259
▁n	-9.89345
▁awaits	-9.89363
▁goodly	-9.89539
▁seal	-9.89665
▁fell	-9.89697
▁tenda	-9.89698
▁ransom	-9.89704
▁pata	-9.89706
▁inhabitants	-9.89715
▁perceive	-9.89832
▁travel	-9.89849
▁alike	-9.90135
▁alio	-9.90202
▁bounties	-9.90252
▁oftforgiving	-9.90252
▁conse	-9.90267
▁shown	-9.90287
nabii	-9.90328
▁perish	-9.90511
▁kutaka	-9.9054
▁security	-9.9081
▁sadaka	-9.90812
▁wont	-9.90812
▁forefathers	-9.90813
▁written	-9.90825
▁worthy	-9.9088
▁talk	-9.90889
takasa	-9.91117
▁slain	-9.91371
▁enzi	-9.91618
▁springs	-9.91631
▁rich	-9.91659
ije	-9.91754
▁wawe	-9.91755
lio	-9.91816
▁control	-9.91838
▁arabic	-9.91943
▁relatives	-9.92015
pendi	-9.92085
▁count	-9.92211
▁hicho	-9.92223
▁kutoa	-9.92304
▁divorce	-9.92458
▁honourable	-9.92506
▁cities	-9.92509
baya	-9.92576
takayo	-9.92632
▁hizo	-9.9267
▁affliction	-9.92734
kumbuka	-9.9296
▁marafiki	-9.93073
▁moosa	-9.93073
▁tried	-9.93077
▁mlikuwa	-9.93093
▁mtukufu	-9.93103
▁firaun	-9.9313
▁zina	-9.93256
▁peoples	-9.93372
ongoi	-9.93426
▁kukumbuka	-9.93506
▁rebellious	-9.93613
▁cover	-9.93614
▁trees	-9.93622
n	-9.93856
▁prayed	-9.93899
▁obedient	-9.94181
▁testimony	-9.94224
▁mashahidi	-9.94225
▁conduct	-9.9437
▁takes	-9.94485
▁ibada	-9.94514
▁strengthen	-9.94553
▁winds	-9.94763
▁fail	-9.94794
▁miadi	-9.94808
▁pagans	-9.94893
▁chiefs	-9.94909
▁stones	-9.95008
▁mine	-9.95207
jia	-9.95217
angamiza	-9.95222
▁gold	-9.95395
▁deities	-9.95405
▁potea	-9.95543
▁watch	-9.9569
▁argue	-9.95705
▁mvua	-9.95728
▁fixed	-9.95954
▁disobedient	-9.95976
▁muhula	-9.95976
▁nearer	-9.96024
▁taking	-9.96098
▁enjoined	-9.96118
▁lives	-9.96124
▁z	-9.96353
▁shari	-9.96446
▁heedless	-9.96542
▁intercession	-9.96569
▁kindness	-9.9657
▁enough	-9.96574
▁thereupon	-9.96591
▁usiwe	-9.96602
▁therefrom	-9.96729
▁leaves	-9.9674
▁punished	-9.96864
▁dwellings	-9.96969
▁hatukuwa	-9.97092
▁earn	-9.97115
▁calf	-9.97161
▁driven	-9.9719
ness	-9.97244
▁someone	-9.97272
▁exchange	-9.97384
▁swallow	-9.97387
▁pledge	-9.97404
▁devil	-9.97425
▁heads	-9.97447
▁dhulma	-9.97461
▁fully	-9.9761
▁lessons	-9.98077
▁sulaiman	-9.98104
▁avoid	-9.98117
▁hap	-9.98302
▁humble	-9.98349
▁desist	-9.98361
▁mpole	-9.98361
▁masikio	-9.9837
▁bearer	-9.98394
▁unjustly	-9.98553
▁swift	-9.98914
▁mwanzo	-9.98966
▁beware	-9.98975
▁settled	-9.99006
iyo	-9.99006
▁nend	-9.99056
▁calling	-9.99084
▁mentioned	-9.99171
▁sisters	-9.99238
they	-9.99267
▁plot	-9.99311
▁befalls	-9.99361
▁tangulia	-9.99371
▁nina	-9.99444
▁ika	-9.99528
▁isha	-9.99614
▁mja	-9.9962
▁pairs	-9.99674
▁giza	-9.99764
▁mlipo	-9.99838
▁master	-9.99841
▁bounds	-9.99857
▁upepo	-9.99886
▁period	-9.99898
▁nguo	-9.99948
▁whole	-10.0002
▁becomes	-10.0005
▁lut	-10.0012
▁gospel	-10.0019
▁wahyi	-10.0019
▁worst	-10.0019
▁laid	-10.002
▁covered	-10.003
▁animals	-10.0038
▁possessed	-10.0038
▁opened	-10.0042
▁hamn	-10.0046
▁following	-10.0049
▁iblis	-10.005
▁nigh	-10.0066
▁perfect	-10.0076
▁umbo	-10.0089
▁vifuani	-10.0122
je	-10.0134
▁grief	-10.0142
▁kiburi	-10.0142
▁sides	-10.0146
▁lying	-10.0154
▁persons	-10.0162
▁tongue	-10.017
▁kufuzu	-10.0174
ficha	-10.0179
▁valley	-10.0205
chukia	-10.0209
▁use	-10.023
ongoa	-10.0231
▁muabudu	-10.0231
▁feared	-10.0236
▁differ	-10.0244
▁join	-10.0257
▁wretched	-10.0268
▁mkawa	-10.027
geuka	-10.028
▁teach	-10.0282
▁household	-10.0294
▁ingi	-10.0295
▁parable	-10.0297
▁transgress	-10.0305
▁beings	-10.0316
▁calls	-10.0324
▁sacrifice	-10.0326
▁mwengine	-10.0329
▁chose	-10.033
▁different	-10.0333
▁nita	-10.0338
▁afflicted	-10.0341
▁kaa	-10.0354
▁mawili	-10.0364
▁uka	-10.0367
▁wished	-10.0373
▁commands	-10.0382
▁green	-10.0394
▁ignorance	-10.0394
▁struck	-10.0397
kutana	-10.0421
ingine	-10.0424
▁mengi	-10.0426
mbo	-10.0432
▁prosper	-10.0433
▁sake	-10.0459
▁nduguye	-10.0463
▁groups	-10.0463
▁ukafiri	-10.0471
▁goodness	-10.0471
▁hamta	-10.0474
▁alms	-10.0489
▁mtihani	-10.0491
▁hud	-10.0497
▁afflict	-10.0512
▁showed	-10.052
▁gehenna	-10.0524
▁lina	-10.0535
▁burning	-10.0536
▁invented	-10.0536
▁msiwa	-10.0542
ty	-10.0549
▁onjeni	-10.0555
▁ah	-10.0564
▁invite	-10.0566
▁baharini	-10.0581
▁hundred	-10.0588
▁koran	-10.0588
▁trumpet	-10.0588
▁revive	-10.059
▁aad	-10.06
▁acts	-10.0616
▁sense	-10.0621
▁eye	-10.0625
kupeni	-10.0625
▁sikia	-10.0645
▁bliss	-10.0653
▁tulimp	-10.066
▁kuongoka	-10.0672
▁advice	-10.0682
▁dhana	-10.069
▁benefits	-10.0691
▁ten	-10.07
▁submitted	-10.0719
▁encounter	-10.0719
▁pilgrimage	-10.072
▁creates	-10.0725
▁produced	-10.0737
shwa	-10.074
▁uso	-10.0747
▁vision	-10.075
▁somewa	-10.0774
▁choose	-10.0776
▁unlawful	-10.0781
▁respond	-10.0784
▁shuaib	-10.0785
▁unbelief	-10.0785
▁twice	-10.0785
▁deity	-10.0785
▁forgot	-10.0785
▁wombs	-10.0795
▁ismail	-10.0803
waandali	-10.0812
▁gates	-10.0814
▁lesson	-10.0817
abudu	-10.0834
▁muumba	-10.084
▁fill	-10.0841
ayo	-10.0846
▁sit	-10.0849
▁nyingi	-10.0851
▁price	-10.0852
▁ark	-10.0854
▁white	-10.0855
▁descend	-10.0859
▁towns	-10.0861
▁nyota	-10.0885
▁appear	-10.0886
▁play	-10.0906
▁convey	-10.0907
▁run	-10.0918
▁abundance	-10.0918
▁worshipping	-10.0918
▁blown	-10.0919
▁obedience	-10.0919
▁staff	-10.0919
▁unable	-10.092
▁wafu	-10.092
▁lao	-10.0934
▁disobeyed	-10.0934
▁increased	-10.0936
▁kuu	-10.0939
▁mke	-10.0944
▁task	-10.0951
▁manufaa	-10.0952
▁jioni	-10.0952
▁kuadhibu	-10.096
▁mab	-10.0964
▁kuni	-10.0977
fufua	-10.098
timiza	-10.0984
▁sick	-10.0985
▁threw	-10.0986
▁nzuri	-10.0986
▁later	-10.0987
▁criminals	-10.099
▁earlier	-10.0993
▁maiti	-10.0993
▁ground	-10.0993
▁despair	-10.0994
▁iki	-10.0998
▁rightly	-10.1003
he	-10.1015
▁ndege	-10.102
▁praises	-10.1023
▁tukamw	-10.1033
▁khasara	-10.1035
▁hatu	-10.1038
▁fulfil	-10.1042
▁hasha	-10.1053
▁mtakatifu	-10.1059
▁doers	-10.1082
wekea	-10.1088
allah	-10.1097
▁triumph	-10.1111
▁ahidiwa	-10.1119
piga	-10.1119
▁similar	-10.1122
▁seed	-10.1123
▁divided	-10.1127
▁removed	-10.1136
▁v	-10.1137
hali	-10.1152
▁kupeni	-10.1181
▁barrier	-10.1191
▁universe	-10.1191
▁cave	-10.1191
▁calamity	-10.1191
▁sasa	-10.1191
▁spent	-10.1192
ani	-10.1199
▁ambiwa	-10.1212
▁overcome	-10.1215
▁declare	-10.1217
▁ranks	-10.1222
▁month	-10.1225
▁recompensed	-10.1226
▁shaitan	-10.1229
apata	-10.1237
▁fabricate	-10.1253
▁footsteps	-10.1261
ub	-10.1274
mfanyi	-10.1281
▁claim	-10.129
▁battle	-10.1291
▁interpretation	-10.1294
dumu	-10.1319
▁double	-10.133
▁brethren	-10.133
▁company	-10.133
▁streams	-10.1338
▁round	-10.1344
▁uko	-10.1345
▁msikiti	-10.1346
▁yalio	-10.1356
▁harun	-10.1358
▁ghadhabu	-10.1365
▁ngamia	-10.1365
yatendayo	-10.1365
▁preferr	-10.1369
▁mwake	-10.1369
▁vilivyomo	-10.1373
▁looking	-10.1379
▁watawa	-10.1384
▁yajua	-10.139
▁purity	-10.14
▁striving	-10.1401
▁carried	-10.1406
▁nuh	-10.1407
▁mouths	-10.1407
▁bainisha	-10.1409
huisha	-10.1418
▁waomba	-10.1425
▁j	-10.1429
napo	-10.1429
uite	-10.1435
▁tongues	-10.1441
▁grain	-10.1443
▁teremshiwa	-10.1449
▁waste	-10.145
▁uta	-10.1458
nyenyekea	-10.1466
▁graves	-10.1467
▁split	-10.1471
▁juhudi	-10.1471
▁humiliating	-10.1471
▁hichi	-10.1471
▁ingia	-10.1473
▁mabaya	-10.1476
▁asunder	-10.1479
▁simama	-10.1502
▁mashetani	-10.1507
▁madhara	-10.1507
pelek	-10.1508
▁fate	-10.1512
ahidi	-10.1519
▁mnajua	-10.1528
▁averse	-10.1542
▁blazing	-10.1543
▁reply	-10.1545
▁akamwambia	-10.1551
neath	-10.1553
▁wachache	-10.156
▁private	-10.1574
▁places	-10.1577
▁mkiwa	-10.1585
all	-10.1593
▁messages	-10.16
▁proper	-10.1614
▁akiwa	-10.1618
▁prevent	-10.1641
poteza	-10.165
▁rise	-10.1657
▁midst	-10.166
▁kumbuk	-10.1674
▁expect	-10.1676
took	-10.1679
▁rewarded	-10.1685
▁bellies	-10.1686
▁sovereignty	-10.1687
▁goes	-10.1688
▁possessions	-10.1694
▁differed	-10.1699
kusanya	-10.1713
▁delight	-10.1713
nadhani	-10.1714
▁hawaoni	-10.1725
ziumba	-10.1741
jaali	-10.1748
▁charge	-10.1754
▁low	-10.1757
▁mayahudi	-10.176
▁disbelieving	-10.176
▁always	-10.1763
linda	-10.1763
▁add	-10.1764
▁secretly	-10.1769
▁ulipo	-10.1778
▁leaders	-10.1781
▁cease	-10.1794
▁nyote	-10.1833
tapo	-10.1834
▁decided	-10.184
kiyatenda	-10.1846
▁forgives	-10.1846
▁necks	-10.1849
peni	-10.185
▁sorrow	-10.1856
▁endure	-10.1868
▁tutam	-10.187
▁barren	-10.1906
▁sauti	-10.1907
▁aforetime	-10.1907
▁saleh	-10.1907
▁zipita	-10.1909
▁mitende	-10.1909
▁silver	-10.191
kana	-10.1928
▁maintain	-10.1937
▁mwanam	-10.1944
from	-10.1958
▁peke	-10.1959
▁devour	-10.1973
uainted	-10.1981
▁protection	-10.1982
▁shade	-10.1983
▁determined	-10.1985
that	-10.1986
▁treat	-10.1986
▁scriptures	-10.1999
▁lazim	-10.2002
▁haikuwa	-10.2011
ulizwa	-10.2018
kia	-10.2023
▁taurati	-10.2026
uliza	-10.2034
▁kupotea	-10.2038
▁offering	-10.2044
▁refuse	-10.2049
▁success	-10.2051
▁abundant	-10.2052
dhaalimu	-10.2055
▁submission	-10.2057
▁alive	-10.2059
▁zakat	-10.206
▁obeyed	-10.206
▁resurrected	-10.2061
▁held	-10.2062
▁zita	-10.2065
▁watendao	-10.2072
▁desert	-10.2083
▁kiti	-10.2085
▁guardians	-10.2093
ogopa	-10.2095
▁mortal	-10.2097
▁ija	-10.2098
kadhibisha	-10.2115
▁flowing	-10.2116
tazama	-10.2119
▁owner	-10.212
▁hukuwa	-10.2121
▁met	-10.2128
▁ishmael	-10.2132
▁uadui	-10.2132
▁mutual	-10.2136
▁openly	-10.2143
▁jeuri	-10.2143
ion	-10.2143
▁joined	-10.2145
allcompassionate	-10.2148
▁informed	-10.216
▁sound	-10.2161
▁deceive	-10.2164
at	-10.2166
sibu	-10.2168
▁migongo	-10.217
▁bound	-10.2174
▁spring	-10.2175
▁tumwa	-10.219
▁suffering	-10.2206
▁deniers	-10.2208
▁inmates	-10.2208
▁persist	-10.2209
▁parties	-10.2209
kuuliza	-10.2211
gan	-10.2235
da	-10.2254
shukuru	-10.2257
▁attribute	-10.2266
▁couches	-10.2285
▁various	-10.2292
▁garments	-10.2301
▁magicians	-10.231
▁east	-10.2325
▁expend	-10.2338
ika	-10.2342
▁move	-10.2351
▁terror	-10.2356
▁kula	-10.236
▁kish	-10.2365
ataka	-10.2366
▁strayed	-10.2373
kufikieni	-10.2393
▁head	-10.2416
▁stray	-10.2417
▁accord	-10.2427
▁anger	-10.2433
▁nitaku	-10.2457
▁shal	-10.246
▁kuumbeni	-10.2465
huzunika	-10.2479
▁ukelele	-10.2483
▁misfortune	-10.2484
▁burn	-10.2493
▁mnacho	-10.2508
alieni	-10.251
▁forbearing	-10.2525
▁pride	-10.2526
▁filled	-10.2532
▁mlima	-10.2535
▁vitabu	-10.2541
ishara	-10.2545
▁wanted	-10.2547
▁hiki	-10.2558
▁ngumu	-10.2558
▁decide	-10.2565
▁gate	-10.2565
ndiko	-10.2571
be	-10.2575
▁rank	-10.2585
▁taurat	-10.2591
▁visit	-10.2596
▁ship	-10.2596
▁shecamel	-10.2598
▁tarried	-10.2598
sahau	-10.26
▁fulfill	-10.26
▁salih	-10.2603
▁bar	-10.261
▁yame	-10.2613
ungeli	-10.2614
▁aid	-10.2615
▁balance	-10.2617
▁disputed	-10.2619
▁mizani	-10.2638
▁build	-10.2639
▁hire	-10.2645
▁hearer	-10.2661
▁sending	-10.2667
▁lose	-10.2672
▁ruhusa	-10.2678
▁riches	-10.2679
alili	-10.268
▁originate	-10.268
▁further	-10.2685
▁scattered	-10.2687
nacho	-10.2687
▁satans	-10.2692
▁protectors	-10.27
▁mata	-10.2709
▁maka	-10.2715
▁alama	-10.2718
▁wakisema	-10.272
▁commandment	-10.2725
▁lasting	-10.2741
beba	-10.2741
▁disease	-10.2758
▁shelter	-10.2758
▁maryam	-10.2759
▁hatred	-10.2759
▁service	-10.2761
yaona	-10.2773
▁failed	-10.2773
al	-10.2776
▁kumi	-10.2787
▁parts	-10.2798
▁transgression	-10.2805
walipa	-10.2814
▁clean	-10.2838
▁ascend	-10.2838
▁defend	-10.2839
▁chapter	-10.2839
▁thine	-10.284
▁reaches	-10.2843
▁vipande	-10.2843
▁ready	-10.2844
sikia	-10.2845
▁mpa	-10.2846
▁reminded	-10.2848
▁refused	-10.2848
▁yatakuwa	-10.2853
▁aright	-10.2853
▁miracles	-10.2858
▁force	-10.2859
▁exalt	-10.2862
▁mwend	-10.2874
▁msaidizi	-10.288
▁ra	-10.2884
▁died	-10.2887
▁orphan	-10.2887
▁tribe	-10.2888
▁avert	-10.2896
▁mock	-10.2898
▁waliy	-10.2902
dhuru	-10.2904
▁wanatak	-10.2912
▁expel	-10.2919
▁wanaadamu	-10.2921
▁misdeeds	-10.2922
▁utterly	-10.2928
▁ear	-10.2935
wajia	-10.2949
▁leads	-10.2952
▁wasema	-10.2973
▁miezi	-10.2978
yachuma	-10.2981
▁flee	-10.3
▁herald	-10.3004
▁blast	-10.3005
▁beautiful	-10.301
▁burdens	-10.3016
stahiki	-10.3017
▁chuki	-10.3017
kataza	-10.3026
iah	-10.3038
jiteng	-10.3048
▁partner	-10.3052
▁husband	-10.3052
▁se	-10.3083
ruzuku	-10.3084
ke	-10.3084
▁tangu	-10.3086
▁tupu	-10.3087
▁mislead	-10.3089
▁abiding	-10.309
▁wanyonge	-10.3093
▁kurejea	-10.3095
▁waache	-10.3095
muuwa	-10.3098
▁kuwanusuru	-10.3101
▁mask	-10.3104
waita	-10.3109
▁mawe	-10.3111
▁rely	-10.3119
chwa	-10.312
▁cautious	-10.3129
▁ghafla	-10.3129
▁haraka	-10.3129
limun	-10.3133
▁chuma	-10.314
▁pind	-10.3158
ya	-10.3161
▁safe	-10.3166
kujieni	-10.317
▁indecency	-10.3171
▁msaada	-10.3171
▁allknower	-10.3171
▁saith	-10.3171
▁wide	-10.3171
▁paid	-10.3173
jue	-10.3179
▁wine	-10.3179
▁luti	-10.3181
▁comfort	-10.3183
▁iona	-10.3183
ance	-10.3185
panga	-10.3188
▁drop	-10.3203
onyesha	-10.3205
▁similitude	-10.322
▁voice	-10.3222
gusa	-10.3223
▁huta	-10.3226
▁surrender	-10.3231
tiini	-10.3238
ta	-10.3238
▁damu	-10.3256
▁kipimo	-10.3257
▁alas	-10.3263
▁mocked	-10.3266
zunguka	-10.3272
▁forgotten	-10.3278
▁mwepesi	-10.3298
▁nyoyoni	-10.3302
▁mountain	-10.3308
▁final	-10.3322
▁sleep	-10.3327
pita	-10.3332
▁funuliwa	-10.3335
▁worse	-10.3341
▁kufuata	-10.3342
▁purified	-10.3348
▁guideth	-10.3348
▁birth	-10.3351
▁mess	-10.3351
kuumbeni	-10.3359
almost	-10.3366
able	-10.3369
▁wajumbe	-10.339
ahali	-10.339
▁fault	-10.339
▁direction	-10.3391
▁muslim	-10.3391
iko	-10.3397
▁learn	-10.3402
▁allow	-10.3404
▁oft	-10.3406
▁six	-10.3415
▁recognize	-10.342
▁disclose	-10.3422
▁tatu	-10.3427
▁mzulia	-10.3429
▁skins	-10.3433
their	-10.3433
▁prevented	-10.3439
▁hawato	-10.3453
vunja	-10.3467
▁mifano	-10.347
▁hawawezi	-10.347
▁kukubwa	-10.3475
▁mila	-10.3482
▁continue	-10.351
▁adversity	-10.3513
▁virtue	-10.3521
▁anawa	-10.354
▁fi	-10.354
▁sita	-10.3543
his	-10.3549
umbaji	-10.3566
tupa	-10.358
▁mere	-10.3583
▁less	-10.3594
▁ordered	-10.3595
ti	-10.3596
kuteremshieni	-10.3596
▁west	-10.3599
▁divinity	-10.3601
▁sorcery	-10.3601
▁harmdoers	-10.3602
▁kiasi	-10.3605
▁tukai	-10.3608
▁greeting	-10.3611
▁wanajua	-10.3613
▁spouses	-10.3614
▁sealed	-10.3619
unga	-10.3625
with	-10.363
tamani	-10.3639
wenda	-10.3639
▁position	-10.3657
lipw	-10.3666
▁separate	-10.3678
▁happy	-10.369
▁sail	-10.3692
▁zime	-10.3692
▁pursued	-10.3694
bishan	-10.37
▁angalia	-10.3728
▁await	-10.3733
▁mayatima	-10.3734
▁wingi	-10.3736
▁pumbao	-10.3736
▁adornment	-10.3743
▁cloud	-10.3743
pindukia	-10.3743
▁ancient	-10.3743
▁extreme	-10.3745
jiking	-10.3775
▁kui	-10.3776
▁mizigo	-10.3778
as	-10.3779
▁praiseworthy	-10.3779
▁mfalme	-10.378
▁payment	-10.378
▁divine	-10.3787
▁tubu	-10.3787
▁lini	-10.3792
▁allies	-10.3796
taki	-10.3807
karibia	-10.3815
▁mbashiri	-10.3823
▁uharibifu	-10.3824
▁argument	-10.3833
▁devotion	-10.3833
▁creature	-10.3837
▁mtumwa	-10.3838
▁waambi	-10.3843
fisha	-10.3855
tafute	-10.3865
▁generous	-10.3865
▁dhuriya	-10.3868
▁maskhara	-10.3868
▁shida	-10.3868
▁mkewe	-10.3871
▁kwendea	-10.3871
▁fallen	-10.3873
▁secrets	-10.3875
▁hawaamini	-10.3883
neemesh	-10.3913
▁daima	-10.3914
seme	-10.3914
umri	-10.3914
▁mbio	-10.392
▁gift	-10.3923
zito	-10.3935
iona	-10.3954
▁biashara	-10.3959
▁language	-10.3959
▁kupigana	-10.3968
▁worshipers	-10.397
▁godwary	-10.3985
▁ushindi	-10.4004
▁muhuri	-10.4005
▁utu	-10.401
▁utawaon	-10.4011
▁zika	-10.4022
▁wasaa	-10.4028
▁care	-10.4038
▁prison	-10.4049
▁hears	-10.4049
▁intercede	-10.405
▁hellfire	-10.405
▁majestic	-10.405
▁safari	-10.405
▁shirt	-10.405
▁treaty	-10.4053
▁hatuta	-10.4056
tukuza	-10.4058
▁fabricated	-10.406
▁body	-10.4061
tumia	-10.4067
▁justly	-10.4075
▁fany	-10.408
▁excuses	-10.4082
▁associated	-10.4091
▁gush	-10.4094
▁pasi	-10.4097
▁desired	-10.4098
▁dream	-10.4107
▁host	-10.4109
▁lili	-10.4112
▁uwa	-10.4112
▁tusi	-10.4125
samehe	-10.4129
▁short	-10.4145
▁reclining	-10.4145
▁forged	-10.4148
▁aye	-10.4153
▁kha	-10.4168
▁assign	-10.4168
tosha	-10.4172
▁husbands	-10.4185
uest	-10.4191
▁incline	-10.4192
▁wabashirie	-10.422
▁judges	-10.4222
fanyi	-10.423
▁comprehend	-10.4236
▁expelled	-10.4237
▁disobedience	-10.4237
▁visible	-10.4237
▁lamp	-10.424
sadikish	-10.424
▁disbelieves	-10.4244
▁ward	-10.4266
kundi	-10.4268
▁anawajua	-10.4289
▁discourse	-10.4295
kubainishieni	-10.4295
▁plead	-10.4317
pande	-10.4324
▁lower	-10.4326
▁enmity	-10.433
▁next	-10.433
▁prostrating	-10.433
▁lofty	-10.433
▁half	-10.4331
▁since	-10.4333
▁dreadful	-10.4334
▁ahead	-10.4335
utakuwa	-10.4342
▁tuki	-10.4347
▁tumekuteremshi	-10.4348
uited	-10.4377
▁chastise	-10.439
muasi	-10.439
▁haja	-10.4396
▁succeed	-10.4401
▁kuya	-10.4407
▁mwangaza	-10.4407
wana	-10.442
▁maonyo	-10.4425
▁army	-10.4426
▁mtoto	-10.4426
▁msiba	-10.4427
▁likewise	-10.4428
▁increases	-10.4437
▁kudumu	-10.4438
▁timiz	-10.4442
▁transgressing	-10.4445
▁honoured	-10.4445
▁depart	-10.4457
▁nights	-10.4465
▁mapambo	-10.4473
▁fichikana	-10.4484
zuia	-10.4493
▁waulize	-10.4495
▁heat	-10.45
▁milango	-10.4502
▁mawingu	-10.4503
▁wat	-10.4507
▁kuzi	-10.451
▁frustrate	-10.4514
▁responsible	-10.4521
▁undoubtedly	-10.4521
hila	-10.4522
▁dry	-10.4524
▁wapotofu	-10.4528
▁ornaments	-10.4529
▁makkah	-10.4533
▁withhold	-10.4533
▁mahal	-10.4549
faa	-10.4552
▁suffices	-10.4556
▁utulivu	-10.4569
▁prostration	-10.4582
tiwa	-10.4586
▁rising	-10.4588
▁halali	-10.4591
▁giveth	-10.4594
▁hinder	-10.4598
▁kazi	-10.4607
▁stern	-10.4616
▁kadhibisha	-10.4617
▁built	-10.4618
▁kadhaalika	-10.4618
▁certainty	-10.4619
▁usury	-10.4619
▁itself	-10.4619
▁taabu	-10.462
▁successors	-10.4623
or	-10.4632
▁suffice	-10.4651
kosa	-10.4656
▁njoo	-10.4667
▁waziwazi	-10.4667
▁asking	-10.4675
▁wander	-10.468
▁ziumba	-10.4681
▁sister	-10.4682
▁shame	-10.4695
ma	-10.4713
▁loan	-10.472
▁mepesi	-10.4722
▁replace	-10.4734
▁ruined	-10.4737
▁allaware	-10.4743
li	-10.4757
▁vipofu	-10.4765
▁safi	-10.4775
ting	-10.4779
sipo	-10.4784
▁announce	-10.4797
▁overtake	-10.4801
▁kadiri	-10.4807
▁encompasse	-10.4812
▁relate	-10.4813
▁adorn	-10.4814
▁mzigo	-10.4814
▁silk	-10.4815
▁blaze	-10.4815
▁permitted	-10.4815
▁denies	-10.4815
▁mshirikisha	-10.4839
rudisha	-10.4843
▁tw	-10.4872
▁apendavyo	-10.4872
▁msiwe	-10.4889
▁afterwards	-10.4891
▁bears	-10.4902
jidhulumu	-10.4902
▁waliwa	-10.4909
▁seas	-10.4911
▁rebellion	-10.4914
▁prophethood	-10.4916
▁solemn	-10.4918
▁allowed	-10.4928
▁mtaka	-10.4933
▁fearing	-10.494
atosha	-10.495
nga	-10.4957
▁stone	-10.4974
▁promises	-10.4979
uence	-10.498
nt	-10.4983
▁dumb	-10.5015
▁inheritance	-10.5017
▁setting	-10.5019
▁therefor	-10.5033
sheni	-10.5076
▁excuse	-10.5078
▁working	-10.5082
▁denying	-10.5082
▁amewa	-10.5086
▁revert	-10.5112
▁uni	-10.5114
▁dark	-10.5116
▁spoke	-10.5116
▁hunger	-10.5117
▁black	-10.5117
▁ponder	-10.5118
▁mindful	-10.512
▁laden	-10.5131
ini	-10.5131
▁kuna	-10.5137
waonaje	-10.5158
▁rangi	-10.5168
▁marikebu	-10.5168
▁ngombe	-10.5168
▁mchezo	-10.5168
▁kipofu	-10.5168
▁maradhi	-10.5168
▁utukufu	-10.517
▁mifupa	-10.517
hidi	-10.5182
▁akipenda	-10.5185
▁mchawi	-10.5186
▁thamudi	-10.5208
▁loose	-10.5209
▁mengine	-10.5216
▁iron	-10.522
▁armies	-10.522
▁onekana	-10.522
▁slew	-10.5221
▁walipa	-10.5224
uity	-10.5231
mekuwa	-10.5247
▁pigan	-10.5249
tubu	-10.5249
ulia	-10.5253
▁heirs	-10.5253
▁tested	-10.5253
amu	-10.5266
▁viziwi	-10.5271
▁uthibitisho	-10.5271
▁smite	-10.5272
▁waovu	-10.5274
kimbilia	-10.5275
▁shauri	-10.5283
▁tunaku	-10.5286
uliwa	-10.5295
▁exceed	-10.53
▁laugh	-10.53
▁nusur	-10.5309
▁warners	-10.532
ternal	-10.5321
uit	-10.5323
▁khitalifiana	-10.5323
▁midian	-10.5323
▁selfsufficient	-10.5323
uital	-10.5324
▁safety	-10.5324
▁ubakhili	-10.5325
▁crops	-10.5325
▁deluded	-10.5326
▁devoted	-10.5328
▁spoken	-10.5329
▁fish	-10.5329
vu	-10.5333
▁weza	-10.5338
▁humbled	-10.5339
▁whence	-10.5343
▁masanamu	-10.5376
▁mashariki	-10.5376
▁ulimi	-10.5376
▁lenu	-10.5376
aya	-10.5383
mali	-10.5386
▁remind	-10.5402
▁males	-10.5413
▁careful	-10.5425
▁che	-10.5428
▁hajj	-10.5428
▁shingo	-10.5428
▁forsake	-10.5433
▁evident	-10.5435
▁consume	-10.5437
▁goods	-10.5445
▁udhuru	-10.5446
▁wekwa	-10.5461
▁yaficha	-10.5462
▁lawama	-10.5462
▁struggle	-10.5467
▁ongoka	-10.5471
▁rewards	-10.5497
hadithi	-10.5498
▁minds	-10.5504
bashiria	-10.5513
▁wanawa	-10.5519
▁geuka	-10.5522
▁adi	-10.5525
▁ridicule	-10.5528
▁trouble	-10.5531
▁humility	-10.5535
▁selves	-10.5536
aji	-10.5537
▁oppressed	-10.5541
▁grave	-10.5542
uadhibu	-10.5548
▁tumewa	-10.5548
▁tone	-10.555
▁transgressed	-10.5553
▁sem	-10.5553
▁mari	-10.5554
▁iamini	-10.5557
▁mwombe	-10.5557
▁urge	-10.5558
saying	-10.5564
▁tribes	-10.5581
▁msifiwa	-10.5589
▁broke	-10.5595
▁detail	-10.5595
these	-10.5597
▁advance	-10.5601
▁flame	-10.5606
▁magician	-10.5607
uake	-10.5607
▁result	-10.5611
zwa	-10.5611
by	-10.5616
▁succour	-10.5631
▁celebrate	-10.5638
▁repel	-10.5641
▁nika	-10.5642
ung	-10.5642
▁befell	-10.5642
▁humiliation	-10.5642
▁madhubuti	-10.5642
▁inspiration	-10.5642
▁third	-10.5642
▁wrongfully	-10.5643
amrishwa	-10.5652
▁pieces	-10.5655
onja	-10.5658
ogopeni	-10.566
▁intercessors	-10.5668
▁tunawa	-10.5674
wafaa	-10.5683
▁kale	-10.5697
▁ta	-10.5699
▁restrain	-10.5701
▁uliye	-10.5702
▁kushika	-10.5707
▁mcha	-10.5709
▁hamwe	-10.5711
▁debt	-10.5712
ngozi	-10.5733
▁ulikuwa	-10.5736
▁restore	-10.5743
ment	-10.5744
▁waonyaji	-10.575
▁gooddoers	-10.5753
▁large	-10.5753
▁chukua	-10.5762
ful	-10.5764
▁beasts	-10.5766
jivuna	-10.5776
▁kijan	-10.5777
▁utawa	-10.5787
▁pigana	-10.5794
lia	-10.5798
some	-10.5804
▁wape	-10.5808
▁pour	-10.5836
mzulia	-10.5838
mtii	-10.5843
▁dislike	-10.5852
▁counsel	-10.5853
potea	-10.5857
▁money	-10.586
▁chaste	-10.586
▁niggardly	-10.5861
mwacha	-10.5863
thrown	-10.5875
▁tumei	-10.5895
rejea	-10.59
▁kin	-10.5901
▁prefer	-10.591
▁hawatadhulumiwa	-10.5916
▁condition	-10.5944
▁mam	-10.5958
▁realize	-10.5965
▁wonder	-10.5965
itikia	-10.5965
▁fine	-10.5967
▁nyepesi	-10.5971
▁rejoicing	-10.5971
▁imara	-10.5971
▁binaadamu	-10.5971
▁safu	-10.5971
▁jike	-10.5971
▁hawatambui	-10.5972
▁kichwa	-10.5973
▁pambo	-10.5974
ndama	-10.5974
ada	-10.5977
▁moving	-10.5977
▁muwe	-10.5979
▁upuuzi	-10.5983
▁elfu	-10.5983
▁encompassed	-10.5984
man	-10.5987
▁matumboni	-10.5988
starehesha	-10.5991
▁intend	-10.6003
▁tukufu	-10.6014
▁kuliani	-10.602
▁presented	-10.6023
▁denial	-10.6027
▁injili	-10.6027
ondole	-10.603
▁release	-10.6036
shuhudia	-10.6042
▁bakia	-10.6043
tarudishwa	-10.6046
▁river	-10.6047
▁direct	-10.6057
▁vifua	-10.6064
ilia	-10.6075
▁waruzuku	-10.6079
▁olive	-10.6081
▁glorious	-10.6083
▁awful	-10.6083
▁mockery	-10.6083
▁eden	-10.6083
▁gabriel	-10.6086
laka	-10.6086
▁pearls	-10.6087
▁bure	-10.609
▁herein	-10.6092
▁heels	-10.6094
▁awa	-10.6102
▁mnyama	-10.6105
▁hiz	-10.6107
▁recorded	-10.6115
kaa	-10.613
jui	-10.6131
▁mume	-10.6136
▁daraja	-10.6139
▁waheshimiwa	-10.6139
▁machafu	-10.614
jaalie	-10.6142
▁kuumba	-10.6146
▁pake	-10.6146
▁wakiyafanya	-10.6148
▁assigned	-10.6155
▁kupata	-10.6173
▁provides	-10.6173
ues	-10.6183
▁covering	-10.6186
▁exercise	-10.619
fike	-10.6191
▁eight	-10.6195
▁sabbath	-10.6196
▁magharibi	-10.6196
▁mkutano	-10.6198
penda	-10.6205
▁admonished	-10.6206
gawa	-10.6208
▁kukhasiri	-10.6208
▁bearing	-10.6213
▁merely	-10.6215
▁nitawa	-10.622
▁camels	-10.622
▁guarded	-10.6244
▁soma	-10.6247
▁rock	-10.6263
▁killing	-10.6267
▁kita	-10.6268
iteni	-10.6273
▁year	-10.628
anguka	-10.6289
ujibu	-10.6289
▁self	-10.6306
▁insolent	-10.6307
▁guile	-10.6311
▁plotted	-10.6311
▁endowed	-10.6313
▁latter	-10.6315
▁chooses	-10.6315
▁mzuri	-10.6323
▁sets	-10.6324
▁actions	-10.6326
▁huto	-10.6348
▁deem	-10.635
zidishia	-10.6352
▁falls	-10.6359
▁wakusanya	-10.636
▁talaka	-10.6369
▁maombi	-10.637
▁yapo	-10.6374
ne	-10.6384
▁humans	-10.6403
▁hayakuwa	-10.6404
▁wasi	-10.6422
▁huwapend	-10.6424
▁existence	-10.6427
▁lightning	-10.6427
▁front	-10.6427
▁trustworthy	-10.6427
▁bore	-10.6431
▁kusubiri	-10.6436
▁forgiven	-10.6438
▁deceived	-10.6438
tengeneza	-10.644
ous	-10.6445
otesha	-10.645
pambanua	-10.6451
▁tutaku	-10.6454
upe	-10.6464
▁prostrated	-10.6466
▁prevail	-10.6484
▁favoured	-10.6487
▁yasema	-10.6499
▁generation	-10.6509
▁haman	-10.6509
▁shik	-10.6518
▁litap	-10.6521
▁waseme	-10.6528
▁persevere	-10.6536
▁akitaka	-10.6542
▁fresh	-10.6543
▁happiness	-10.6544
▁altogether	-10.6545
▁preceded	-10.6548
▁begin	-10.6551
▁proved	-10.6552
▁mwita	-10.6558
▁observed	-10.6566
▁wit	-10.6568
zina	-10.6572
ombeni	-10.6585
idi	-10.659
▁hija	-10.6603
▁tafsir	-10.6612
dhalilisha	-10.6616
▁veil	-10.6616
▁spare	-10.6627
▁laws	-10.6634
ea	-10.6637
cond	-10.6649
▁start	-10.6652
▁bitter	-10.6658
▁majesty	-10.6663
▁victorious	-10.6663
▁cool	-10.6663
▁sitting	-10.6663
▁guests	-10.6664
▁willingly	-10.6667
▁uza	-10.6667
la	-10.6692
▁telling	-10.6698
mu	-10.6704
▁viza	-10.6721
kutuma	-10.6723
▁hamjui	-10.6724
▁regret	-10.6727
▁miti	-10.6727
walipe	-10.6728
▁laan	-10.6733
▁kuw	-10.6734
▁humwongo	-10.6736
▁withdraw	-10.6742
▁conjecture	-10.6747
▁bin	-10.6758
▁delay	-10.6772
▁appointment	-10.6783
▁misled	-10.6784
▁bara	-10.6785
▁exposed	-10.6786
▁inheritors	-10.6787
▁committing	-10.6787
▁daudi	-10.6788
▁nearest	-10.6798
▁surrendered	-10.6798
▁p	-10.68
▁corn	-10.6803
badilish	-10.6804
egemea	-10.6817
▁intends	-10.6821
ikiwa	-10.6838
funika	-10.684
▁madaraka	-10.6843
▁muaminifu	-10.6844
▁mgongo	-10.6845
▁zile	-10.6846
tawala	-10.6848
takavyo	-10.6848
chawi	-10.6856
▁iblisi	-10.6858
subiri	-10.6862
▁wanaku	-10.6865
▁wakweli	-10.6866
▁caravan	-10.6868
▁boy	-10.6872
▁baadaye	-10.6874
▁yata	-10.6874
▁kumuabudu	-10.6875
▁mkumbuke	-10.6884
▁fuata	-10.6889
▁mtii	-10.6889
▁young	-10.6898
▁aversion	-10.6904
▁families	-10.6904
▁firawn	-10.6904
▁resort	-10.6904
▁vyeo	-10.6904
▁shameful	-10.6905
▁reality	-10.6905
▁nacho	-10.6905
▁stood	-10.6906
▁ataku	-10.6919
early	-10.6922
hiliki	-10.6927
tumwa	-10.6936
▁oh	-10.6943
▁form	-10.6944
▁foot	-10.6948
▁fasting	-10.6959
▁thamani	-10.6966
kutafut	-10.6966
mepotea	-10.6967
▁alim	-10.6969
▁mad	-10.697
▁ngojeni	-10.6979
fikilia	-10.6982
▁animal	-10.6994
▁tran	-10.7003
mwona	-10.7006
▁dha	-10.7007
▁kuruzukuni	-10.7011
▁greet	-10.7015
▁fuel	-10.7016
elve	-10.7027
▁mapenzi	-10.7028
▁weakness	-10.7029
▁sexual	-10.7032
▁obligatory	-10.7033
▁fearful	-10.7034
▁kumbuka	-10.7035
▁belongeth	-10.7044
▁nature	-10.7047
alia	-10.7058
wary	-10.7058
▁hakun	-10.7063
fundisha	-10.7069
▁witnessed	-10.707
▁amrishwa	-10.7083
▁wakuu	-10.7084
▁judged	-10.7085
▁mtarejeshwa	-10.7097
▁akaja	-10.7097
juulisha	-10.71
m	-10.7111
ahari	-10.7118
▁attack	-10.7135
▁hamku	-10.7139
▁wamiliki	-10.714
▁disbeliever	-10.7141
iteremsha	-10.7141
▁wanam	-10.7141
▁roast	-10.7145
ruka	-10.716
▁atam	-10.716
▁intended	-10.7165
lizo	-10.7168
▁provisions	-10.7169
▁completed	-10.7171
▁wakashika	-10.7176
▁rudi	-10.7177
▁admonish	-10.7178
ufanya	-10.7179
▁matumbo	-10.7196
▁weigh	-10.7197
▁owners	-10.7198
▁stretch	-10.72
▁subhanahu	-10.7215
▁prove	-10.7219
tazame	-10.7237
yaamini	-10.7239
▁fortune	-10.7243
▁breast	-10.7248
this	-10.7259
ondoa	-10.7276
▁regular	-10.7276
▁firon	-10.7278
▁repaid	-10.7278
▁pleasing	-10.7282
kulete	-10.7286
▁shika	-10.7289
▁exists	-10.7295
▁averted	-10.7302
▁arabs	-10.7302
▁knowingly	-10.7314
▁kufikish	-10.7326
▁wakristo	-10.7342
▁kughafilika	-10.7343
▁uchamngu	-10.7345
ies	-10.7349
wakuta	-10.7359
▁accepts	-10.736
▁elekea	-10.737
▁cup	-10.737
▁livelihood	-10.7371
▁writing	-10.7374
▁con	-10.7377
liye	-10.738
ziko	-10.7396
▁tremendous	-10.7406
▁superior	-10.7406
▁thamood	-10.7406
▁grasp	-10.7407
▁ride	-10.7409
▁destined	-10.741
▁examples	-10.7413
fuateni	-10.7422
▁appeared	-10.7426
▁keepers	-10.7429
▁reform	-10.7435
ulikuwaje	-10.744
desiring	-10.7453
um	-10.7462
▁dog	-10.7462
▁bid	-10.7466
kuu	-10.7466
▁yaka	-10.7474
▁akaku	-10.7475
▁honor	-10.7488
nyanyua	-10.7491
▁shout	-10.7491
▁settle	-10.7493
▁flight	-10.7497
ity	-10.7513
▁sort	-10.7515
▁accuse	-10.7521
▁sport	-10.7522
muumba	-10.7531
▁humu	-10.7532
▁yakawa	-10.7533
▁stories	-10.7536
▁trade	-10.7541
▁charged	-10.7549
jenga	-10.7551
▁rests	-10.7552
▁degrees	-10.7557
naye	-10.756
chukuli	-10.7561
▁swor	-10.7564
▁vina	-10.7576
uences	-10.7581
▁kuku	-10.761
lightened	-10.7613
tenga	-10.7628
▁hat	-10.7639
▁wall	-10.764
▁w	-10.764
▁barr	-10.7651
▁stop	-10.7655
▁abandon	-10.7656
▁h	-10.7658
▁allpowerful	-10.7666
▁progeny	-10.7666
religious	-10.7667
▁wellpleased	-10.7667
▁fitna	-10.7668
▁spoils	-10.7672
▁relations	-10.7678
▁tende	-10.7681
▁differences	-10.7681
an	-10.7707
fu	-10.7724
yuko	-10.7726
▁rained	-10.7729
▁wafanyi	-10.774
▁mar	-10.7741
uire	-10.7755
▁wange	-10.7758
▁ilah	-10.7758
zikataa	-10.7759
▁palm	-10.7764
▁township	-10.7764
▁supporter	-10.7767
lieni	-10.7772
futa	-10.7782
tanusuri	-10.7798
▁kifua	-10.7799
▁violent	-10.7799
▁foolish	-10.7799
▁huruma	-10.7799
▁jahazi	-10.7799
▁kiarabu	-10.7799
▁mabadiliko	-10.7799
▁mifugo	-10.7799
▁mwendawazimu	-10.7799
▁poverty	-10.7799
▁sheep	-10.7799
▁ukarimu	-10.7799
▁vegetation	-10.7799
▁assembly	-10.78
▁mwongofu	-10.78
▁distinction	-10.78
▁muovu	-10.78
▁mizabibu	-10.78
▁overtaken	-10.78
najua	-10.7801
▁unyenyekevu	-10.7801
▁kikubwa	-10.7801
▁jicho	-10.7801
▁breathed	-10.7805
▁prohibited	-10.7806
▁tumeamini	-10.7815
▁thoughts	-10.7815
▁captives	-10.7817
▁yatangaza	-10.7818
▁length	-10.7825
lamin	-10.7825
▁kinyum	-10.7827
▁forge	-10.7827
▁explained	-10.783
▁recit	-10.7831
▁suffered	-10.785
▁nzito	-10.7868
▁kivuli	-10.7868
▁shukrani	-10.7868
▁waona	-10.7872
nguru	-10.7876
▁mwongo	-10.7879
▁kukimbilia	-10.788
▁jema	-10.788
fikiri	-10.7883
mpa	-10.7889
tembe	-10.7891
▁verse	-10.7891
▁load	-10.7892
▁sio	-10.7894
▁patron	-10.7899
▁sorcerer	-10.7899
▁crime	-10.79
taingia	-10.7906
▁yaona	-10.791
who	-10.7912
▁forgiver	-10.7919
▁anao	-10.792
mfunulia	-10.7924
fuate	-10.7925
▁usio	-10.7926
▁heir	-10.7926
▁purifie	-10.7926
▁zitok	-10.7927
▁submissive	-10.7929
▁eternal	-10.7933
▁arrogance	-10.7934
▁chembe	-10.7934
▁bewitched	-10.7935
▁upesi	-10.7937
▁fashioned	-10.7937
▁sects	-10.7946
▁unap	-10.7952
▁scales	-10.7957
▁akai	-10.7958
▁supplicate	-10.7958
▁ange	-10.7964
kavu	-10.7966
▁khasiri	-10.797
▁cow	-10.797
▁preserve	-10.7984
▁faults	-10.799
endea	-10.7995
▁dies	-10.7998
▁tukaku	-10.8
▁hisani	-10.8
▁chemka	-10.8002
▁yamo	-10.8014
▁oppose	-10.8028
▁ovu	-10.8035
▁bird	-10.8035
▁mfikia	-10.8037
▁kuhisabu	-10.8041
▁mean	-10.8041
▁preach	-10.8045
out	-10.805
▁furaha	-10.8051
endelea	-10.8059
▁kukaa	-10.8064
▁event	-10.8065
▁constant	-10.8068
▁behalf	-10.8071
▁hearken	-10.8071
▁rage	-10.8071
▁ndoto	-10.8071
▁absolute	-10.8072
▁realise	-10.8073
▁surah	-10.8074
▁closer	-10.8075
▁worshippers	-10.8075
▁kubainisha	-10.8077
▁miwili	-10.8077
▁rescued	-10.8077
▁ukomo	-10.8079
▁neglected	-10.8081
▁born	-10.8087
ndimi	-10.8094
▁formed	-10.8098
▁meanings	-10.8101
▁uliwa	-10.8107
▁wengineo	-10.811
▁thereto	-10.8124
▁ba	-10.813
▁slander	-10.8134
saidia	-10.8135
whereupon	-10.8138
▁err	-10.8139
▁hardened	-10.8142
pa	-10.8155
▁yana	-10.816
nafanya	-10.8171
▁road	-10.8173
even	-10.8196
geuz	-10.8198
▁advantage	-10.8209
▁yellow	-10.8209
▁wasiwasi	-10.8209
▁numerous	-10.8213
▁kusujudu	-10.8213
▁wallahi	-10.8214
▁terms	-10.8215
▁flocks	-10.8219
wauwa	-10.822
▁completely	-10.8223
▁warithi	-10.8227
▁wandering	-10.8227
▁commits	-10.8265
▁washirikisha	-10.8266
▁ogopa	-10.8268
kubaliwa	-10.8274
kumbuki	-10.8274
eleza	-10.8275
▁wanazo	-10.8277
▁akakufany	-10.8283
▁takatifu	-10.829
▁seer	-10.8292
▁kujia	-10.8293
▁afterward	-10.8315
▁attend	-10.8335
iwi	-10.8339
tieni	-10.834
▁public	-10.8341
▁egypt	-10.8342
incumbent	-10.8349
▁hypocrisy	-10.8349
▁ajabu	-10.8349
▁bodies	-10.8349
▁innocent	-10.835
▁mipango	-10.835
▁zakariya	-10.8351
▁sinai	-10.8356
▁highest	-10.836
▁kukut	-10.8365
▁binding	-10.8366
▁eda	-10.8391
▁resting	-10.8408
▁bonde	-10.8409
achi	-10.8413
▁shukuru	-10.8416
▁marudio	-10.842
▁mzaha	-10.842
▁nili	-10.8422
▁worked	-10.8426
▁harvest	-10.8429
▁nine	-10.843
▁mjini	-10.8439
▁yawe	-10.8441
drew	-10.8445
▁render	-10.8447
teketeza	-10.8452
▁intercessor	-10.8458
▁yield	-10.8464
▁sell	-10.848
▁star	-10.8482
▁difficult	-10.8489
▁injeel	-10.8492
▁scourge	-10.8492
▁subservient	-10.8492
▁riba	-10.8492
▁afflictive	-10.8492
▁accursed	-10.8492
▁friendship	-10.8492
▁humbly	-10.8492
juaye	-10.8493
▁grapes	-10.8493
▁extent	-10.8493
▁abiders	-10.8494
▁glorified	-10.8497
▁conveyed	-10.8516
▁watching	-10.8524
▁marvel	-10.8533
▁proclaimed	-10.8534
▁haste	-10.854
▁atapo	-10.8547
▁concealed	-10.8549
rent	-10.8551
▁umo	-10.8555
nyaku	-10.8558
▁jengine	-10.8564
▁tuliwapa	-10.8565
▁corrupt	-10.857
▁named	-10.857
▁wakato	-10.8574
▁likes	-10.8596
▁nazo	-10.861
▁threaten	-10.8612
dui	-10.8619
▁disdain	-10.8625
▁deni	-10.8631
then	-10.8633
▁humkunj	-10.8633
leaving	-10.8636
▁thunderbolt	-10.8636
▁ndogo	-10.8636
▁vast	-10.8637
▁surety	-10.8637
▁distance	-10.8638
▁wast	-10.8638
▁condemned	-10.8639
▁lowest	-10.864
▁clot	-10.8642
▁diverse	-10.8645
▁disputes	-10.866
▁walete	-10.8663
▁rebel	-10.8663
changed	-10.8665
mfundisha	-10.8668
▁supporters	-10.8677
▁fai	-10.8678
kataa	-10.8679
ers	-10.8684
▁meat	-10.8687
▁ule	-10.869
▁point	-10.8701
▁hishima	-10.8709
ondoka	-10.8718
▁looked	-10.8719
▁praised	-10.872
▁happen	-10.8723
mkataa	-10.8724
habu	-10.8734
▁hakuteremsh	-10.8734
▁station	-10.8736
▁kupa	-10.8739
▁effect	-10.8747
dhihirisha	-10.8751
▁akaya	-10.8757
▁amana	-10.8762
ongoza	-10.8768
▁forbids	-10.8773
▁joy	-10.878
▁discipl	-10.8783
▁vengeance	-10.8783
▁swine	-10.8783
▁kindred	-10.8787
▁msamehevu	-10.8787
▁kutu	-10.8788
▁sincerely	-10.8795
▁palmtrees	-10.8796
▁fellows	-10.8798
panda	-10.8809
▁supported	-10.8814
like	-10.8815
▁kimb	-10.8821
wili	-10.8827
▁obtain	-10.883
▁mashaka	-10.8838
▁penye	-10.884
jesha	-10.8844
▁tunge	-10.8848
▁wo	-10.8854
karibie	-10.8857
▁kote	-10.8858
▁ufisadi	-10.8859
▁viti	-10.8863
▁wenzao	-10.8863
walete	-10.8865
▁kushotoni	-10.8865
inua	-10.8865
ve	-10.8865
vumilia	-10.8872
asihi	-10.8879
▁utoka	-10.8883
halalishi	-10.8887
▁sharia	-10.8895
▁zitakuwa	-10.8907
uka	-10.8909
▁band	-10.8909
▁mtaje	-10.8916
▁mkononi	-10.8921
▁rescue	-10.8925
▁deep	-10.8927
▁penitent	-10.8927
▁umtakaye	-10.8932
▁madness	-10.8932
ueath	-10.8932
▁welcome	-10.8933
▁trunk	-10.8933
▁seduce	-10.8934
▁kufunulia	-10.8935
▁enduring	-10.8938
▁mrefu	-10.8941
▁lean	-10.8948
itwa	-10.8949
▁nitiini	-10.8953
▁divorced	-10.8953
jaribu	-10.8953
liwa	-10.8955
▁despaired	-10.8957
▁rehearse	-10.8957
▁kejeli	-10.896
▁begotten	-10.8963
▁kukufuru	-10.8963
▁mwako	-10.8964
▁duni	-10.8978
mtegemea	-10.8991
ki	-10.8994
umbwa	-10.9004
▁kufufuliwa	-10.9007
▁practice	-10.9009
▁tumesikia	-10.9012
yajua	-10.9015
▁uli	-10.9017
▁demand	-10.9022
▁chako	-10.9025
▁kuonyesh	-10.9026
▁madyana	-10.9027
▁kilio	-10.903
tuma	-10.9036
ovu	-10.9045
▁amem	-10.9046
▁miracle	-10.9047
▁dis	-10.9048
▁statement	-10.9052
kimbia	-10.9052
▁waumba	-10.9061
▁building	-10.9071
▁alter	-10.9073
rithish	-10.9074
▁kata	-10.9077
▁flood	-10.9082
▁alternation	-10.9082
▁kingship	-10.9083
▁travelled	-10.9083
▁honorable	-10.9083
▁smoke	-10.9083
▁wrought	-10.9084
▁mwingine	-10.9085
▁kike	-10.9086
▁eternally	-10.9089
▁believeth	-10.9105
▁haita	-10.9105
ache	-10.9107
▁keeping	-10.9112
ingie	-10.9119
▁onywa	-10.9121
▁usini	-10.9128
▁forces	-10.9151
chelea	-10.9162
▁wajua	-10.9169
▁hauta	-10.917
jali	-10.9183
kwambie	-10.9188
▁opinion	-10.9199
▁speaks	-10.9208
▁msujudie	-10.9214
▁mates	-10.9227
▁chao	-10.923
▁vinywa	-10.9235
▁bracelets	-10.9236
▁compensation	-10.9236
▁originator	-10.9236
▁kinywaji	-10.9236
▁disaster	-10.9236
▁fled	-10.924
▁en	-10.9241
▁distant	-10.9242
▁whereby	-10.9243
▁pazia	-10.9244
▁sixth	-10.9245
▁kunywa	-10.9246
rs	-10.9248
▁directed	-10.9252
▁plants	-10.9253
▁portents	-10.9263
▁aweza	-10.9264
▁mightie	-10.9264
▁shadows	-10.9265
▁obligations	-10.9266
▁wear	-10.9268
sikiliza	-10.9272
▁dreams	-10.9295
▁pana	-10.9301
▁receiv	-10.9322
▁scatter	-10.9331
▁content	-10.9338
▁blow	-10.9342
ziamini	-10.9353
▁abstain	-10.9384
▁grows	-10.939
▁beauty	-10.9391
▁communities	-10.9391
▁fluid	-10.9391
▁yahya	-10.9391
▁miserable	-10.9391
▁achievement	-10.9391
▁merchandise	-10.9391
▁outcome	-10.9392
▁restored	-10.9402
▁happened	-10.9403
▁inclined	-10.9404
▁decrees	-10.9404
▁declared	-10.9408
▁mkuu	-10.9416
▁letter	-10.9419
▁kuomba	-10.9425
▁tukiwa	-10.9431
▁slaying	-10.9439
azo	-10.9444
▁tumezi	-10.9448
▁niwe	-10.9458
▁falling	-10.9474
seeming	-10.9481
▁inflict	-10.9486
uabuduni	-10.95
▁neck	-10.9503
▁store	-10.9503
▁shake	-10.9511
▁trustee	-10.9513
▁mto	-10.9521
▁suppose	-10.9523
▁exult	-10.9536
taraji	-10.9538
▁subject	-10.9538
▁salamu	-10.9539
▁neglect	-10.9543
▁absence	-10.9549
▁division	-10.9549
▁impatient	-10.9549
▁john	-10.9549
▁keys	-10.9549
▁sweet	-10.9549
▁future	-10.9549
▁bondman	-10.955
▁rebelled	-10.955
uicken	-10.9551
▁attention	-10.9552
▁meaning	-10.9553
▁maidens	-10.9554
▁response	-10.9554
▁emerge	-10.9556
▁otherwise	-10.9557
▁tryst	-10.9564
▁assemble	-10.9564
▁orders	-10.9564
▁hatun	-10.957
somee	-10.9572
▁restrained	-10.9574
▁tanguliz	-10.9583
▁torn	-10.9586
▁doors	-10.9602
▁imran	-10.9604
asema	-10.9605
▁wakaon	-10.9622
▁hariri	-10.9629
▁suleiman	-10.9629
cheni	-10.9637
▁shuhudia	-10.9643
▁remains	-10.965
ry	-10.9652
uteremsh	-10.9657
▁gains	-10.967
▁sad	-10.9671
hizi	-10.9677
rudishwa	-10.968
▁dread	-10.9682
tokea	-10.9701
▁adopt	-10.9701
▁advise	-10.9704
▁caller	-10.9704
▁entire	-10.9706
▁bare	-10.9706
uals	-10.9706
▁big	-10.971
▁criterion	-10.971
▁sanctuary	-10.971
▁disputing	-10.971
▁charitable	-10.9712
▁arrived	-10.9714
▁devised	-10.9715
▁bond	-10.9716
▁specified	-10.9717
▁drawn	-10.9719
▁source	-10.9719
▁horses	-10.972
▁press	-10.9733
▁habitations	-10.9737
▁blindly	-10.974
▁pardoned	-10.9745
▁palms	-10.9753
▁wakam	-10.9755
▁hate	-10.9762
molten	-10.9766
▁repents	-10.9766
▁madyan	-10.9769
wazamisha	-10.977
kuletee	-10.9776
ambieni	-10.9785
▁spreading	-10.9785
▁hatukuku	-10.9787
▁listened	-10.9788
metoka	-10.9792
kadiria	-10.9801
ua	-10.9805
▁passing	-10.9808
▁knowest	-10.9825
▁repeat	-10.9827
▁scheme	-10.983
▁fac	-10.984
adri	-10.9844
▁relent	-10.9846
▁game	-10.9849
god	-10.9849
▁slaughter	-10.985
▁wages	-10.985
▁tumem	-10.9855
▁disregard	-10.9862
▁tunao	-10.9866
▁ignore	-10.9869
▁mal	-10.9872
▁ancestors	-10.9873
▁chastity	-10.9873
▁eternity	-10.9873
▁persecution	-10.9873
▁unknown	-10.9873
▁married	-10.9874
▁sickness	-10.9874
▁shuayb	-10.9875
▁wakiya	-10.9878
▁emigrated	-10.988
▁entrusted	-10.9881
▁legal	-10.9882
▁thinking	-10.9883
▁recognise	-10.9883
▁asi	-10.9886
▁arrogantly	-10.9892
msaidia	-10.9892
lazimish	-10.9893
funuliwa	-10.9897
▁waves	-10.9902
▁jiteng	-10.9904
ahidiwa	-10.9904
▁betray	-10.9931
▁akazi	-10.9935
▁fat	-10.9937
▁hastened	-10.994
▁added	-10.994
watapo	-10.9944
▁ada	-10.9958
▁inscribed	-10.996
▁subhanak	-10.9964
jadilian	-10.9977
▁agree	-10.9979
ishi	-10.9979
af	-10.9982
khasirika	-10.9982
▁extend	-10.9993
▁usiwa	-10.9996
▁issue	-10.9999
▁paths	-11.0001
▁hump	-11.0003
▁poet	-11.0003
▁kuji	-11.0021
▁gaze	-11.0031
▁alfajiri	-11.0039
▁maturity	-11.0039
▁urafiki	-11.0039
▁wasaidizi	-11.0039
▁kuhimidiwa	-11.0039
▁uombezi	-11.0039
▁arshi	-11.0039
▁temptation	-11.0039
▁majuto	-11.0039
▁succession	-11.004
▁njaa	-11.004
vuli	-11.004
▁allsufficient	-11.004
▁wakiyazua	-11.0041
▁makaburini	-11.0041
▁lend	-11.0041
▁forgave	-11.0042
▁difficulty	-11.0042
▁wazimu	-11.0043
▁amekufany	-11.0043
▁idadi	-11.0043
▁remit	-11.0046
▁causing	-11.0047
uired	-11.0048
▁brand	-11.0052
▁mgonjwa	-11.0055
▁youths	-11.0058
▁kumbushwa	-11.0058
▁wenginewe	-11.0058
▁takasika	-11.0059
▁watukufu	-11.0061
▁pango	-11.0065
▁arms	-11.0065
▁min	-11.0065
▁ilikuwa	-11.0067
▁camel	-11.0067
▁hoa	-11.0071
▁aadi	-11.0073
you	-11.0073
▁distressed	-11.0074
▁wameamini	-11.0075
▁yatanguliza	-11.0083
▁wakapigana	-11.0087
▁barikiwa	-11.0098
▁sujudu	-11.0098
▁admitte	-11.0104
▁ujinga	-11.0123
▁amewaahidi	-11.0124
▁vinywaji	-11.0124
▁joto	-11.0124
▁tuwa	-11.0137
▁zilio	-11.0138
jeshi	-11.0154
▁waahidi	-11.0154
▁narrate	-11.0155
▁yapenda	-11.0158
▁mark	-11.0165
▁mtakase	-11.0169
▁tyrant	-11.0172
▁sinner	-11.0173
▁gizani	-11.0176
▁ilaha	-11.0177
▁pasture	-11.018
▁kumw	-11.0191
▁imagine	-11.0202
▁behave	-11.0205
▁below	-11.0208
▁obvious	-11.0208
▁perdition	-11.0208
▁polytheism	-11.0208
▁preference	-11.0208
▁skies	-11.0208
▁subira	-11.0208
▁injury	-11.0208
▁thyself	-11.0208
▁affection	-11.0208
▁despised	-11.021
▁clothing	-11.021
▁distinct	-11.021
▁vines	-11.0212
▁kufahamu	-11.0214
mention	-11.0215
▁gentle	-11.0223
▁ultimate	-11.0226
your	-11.023
▁visited	-11.0233
forever	-11.0236
▁zikataa	-11.0237
▁mateso	-11.0245
andikia	-11.0248
▁touche	-11.0269
▁race	-11.027
▁mlango	-11.0274
waabudu	-11.0286
kelele	-11.0286
mfikia	-11.0287
▁tuletee	-11.0292
▁usiogope	-11.0293
▁kafiri	-11.0294
▁kiza	-11.0295
▁wamepotea	-11.0297
shinda	-11.0303
▁mtarudishwa	-11.0328
▁bint	-11.0329
▁thereon	-11.0335
▁taa	-11.0336
▁hair	-11.0344
▁plans	-11.0348
▁lied	-11.0349
akhirisha	-11.0364
▁befriend	-11.0367
▁wamep	-11.0374
▁sudden	-11.0376
▁allbeneficent	-11.038
▁munificence	-11.038
▁substance	-11.038
▁ungodly	-11.038
▁uzushi	-11.038
▁oppression	-11.038
▁hamstr	-11.038
▁five	-11.038
▁rear	-11.0382
▁multiplied	-11.0382
en	-11.0384
▁takabari	-11.0384
▁fidi	-11.0384
▁entirely	-11.0386
▁tembe	-11.0386
▁punishes	-11.0387
▁united	-11.0388
▁wings	-11.0397
kati	-11.0398
▁kutana	-11.0399
▁possible	-11.04
▁learned	-11.0403
▁trusts	-11.0404
pigana	-11.0407
hitaji	-11.0418
wacha	-11.0426
▁upo	-11.0427
▁mchamngu	-11.0429
▁mw	-11.0433
▁dispose	-11.0436
▁grieved	-11.044
▁yasi	-11.044
▁shower	-11.045
broken	-11.0453
▁kulete	-11.0454
▁contain	-11.0457
▁fufuliwa	-11.0467
▁khasa	-11.0467
▁manii	-11.0468
▁kuchamngu	-11.0472
▁kusikiliza	-11.0478
▁ut	-11.0479
bade	-11.048
▁earns	-11.0483
uwa	-11.049
▁pande	-11.0492
▁watao	-11.0493
▁guid	-11.0495
▁whisper	-11.0505
▁wayfarer	-11.0519
▁fly	-11.0546
▁strange	-11.0553
▁rabbi	-11.0553
▁crooked	-11.0554
▁capacity	-11.0554
▁substitute	-11.0555
shike	-11.0555
▁countenance	-11.0556
▁jonah	-11.0556
▁tomorrow	-11.0556
▁teaching	-11.0557
▁mansions	-11.0557
▁kamba	-11.0561
▁envoys	-11.0561
▁uwez	-11.0562
▁several	-11.0563
▁slaughtered	-11.0566
▁defeated	-11.0566
▁watenda	-11.057
▁mtuma	-11.0579
▁falsely	-11.0581
▁lusts	-11.0581
▁growth	-11.0582
▁mocking	-11.0582
▁mmo	-11.0587
▁possessor	-11.059
di	-11.0599
scribed	-11.0617
nyayo	-11.0617
zidishie	-11.0623
nusuru	-11.0623
fungaman	-11.0641
▁hamwoni	-11.0647
▁vich	-11.0653
ijui	-11.0655
▁anon	-11.0659
▁kizui	-11.0686
▁contend	-11.0693
▁delusion	-11.0696
▁threat	-11.0696
▁abomination	-11.0696
▁obligation	-11.0697
▁oppress	-11.0707
▁scoff	-11.0708
▁spending	-11.0711
▁muombe	-11.0715
ili	-11.0719
exclusively	-11.0721
▁describe	-11.0725
▁omba	-11.0728
▁wane	-11.0729
▁kime	-11.0729
▁cradle	-11.0732
kukhof	-11.0732
▁lodging	-11.0732
▁posterity	-11.0732
▁conferred	-11.0732
▁disown	-11.0732
▁moment	-11.0733
▁wickedness	-11.0734
▁confederates	-11.0738
▁creed	-11.0738
▁purer	-11.074
▁semen	-11.0741
tuombee	-11.0751
walaani	-11.0753
▁abased	-11.0764
▁willeth	-11.0772
▁door	-11.0775
▁offered	-11.0777
▁hama	-11.0779
▁invoked	-11.078
▁mbwa	-11.0781
▁enjoyed	-11.0782
▁dictate	-11.0793
▁bowing	-11.0795
▁guards	-11.0801
▁kufika	-11.0811
▁daud	-11.0815
▁hamu	-11.0821
▁udanganyifu	-11.0823
▁wakaj	-11.0824
▁bountiful	-11.0824
▁onyo	-11.0828
omo	-11.0839
puuza	-11.0844
zua	-11.0846
▁retreat	-11.0851
▁agreement	-11.0877
▁shadow	-11.0878
▁returning	-11.0879
ibla	-11.0891
▁hopes	-11.0901
▁resurrect	-11.0904
ukumu	-11.0908
▁devout	-11.0909
▁business	-11.0913
▁ingratitude	-11.0913
▁job	-11.0913
▁recount	-11.0913
▁zachariah	-11.0913
▁idle	-11.0913
iblah	-11.0914
▁frighten	-11.0914
▁transgresses	-11.0916
▁humiliated	-11.0918
▁recitation	-11.0918
▁striking	-11.0921
one	-11.0922
▁kitabuni	-11.0924
▁tales	-11.0929
▁fountains	-11.093
▁datepalms	-11.0931
▁kond	-11.0931
yakataa	-11.0936
▁stages	-11.0936
▁ties	-11.0944
ukia	-11.0949
xed	-11.095
▁stated	-11.0951
tujia	-11.0963
▁tukazi	-11.0963
▁eating	-11.0972
mtegemee	-11.0977
▁arguments	-11.0985
▁voices	-11.0989
uko	-11.1015
ce	-11.1018
▁wataingi	-11.103
ga	-11.104
unts	-11.1074
▁overlook	-11.1084
l	-11.1086
▁harsh	-11.1091
▁practise	-11.1094
▁immense	-11.1097
▁anguish	-11.1097
▁devising	-11.1097
▁envy	-11.1097
▁mtakusanywa	-11.1097
▁appreciative	-11.1097
▁chance	-11.1099
assalat	-11.1102
▁bedouins	-11.1106
▁hallowed	-11.1107
▁engaged	-11.1108
▁threatened	-11.1111
▁chains	-11.1112
▁factions	-11.1117
▁defeat	-11.112
▁puliz	-11.112
▁departed	-11.112
▁embrace	-11.1122
▁straying	-11.1128
▁dates	-11.1134
ifikia	-11.1143
▁waita	-11.1145
▁iesa	-11.1162
▁omen	-11.1165
zuri	-11.1167
▁fikiri	-11.1173
▁hours	-11.1182
shia	-11.1189
potele	-11.1197
kumbuke	-11.1203
▁kuki	-11.1204
ation	-11.1212
▁nya	-11.1229
▁deserve	-11.1242
▁serpent	-11.1247
▁date	-11.125
himiza	-11.125
ifa	-11.1257
▁kukata	-11.1258
rejee	-11.126
▁drown	-11.1262
▁guilt	-11.1282
▁shun	-11.1283
▁revenge	-11.1285
▁loving	-11.1285
▁destitute	-11.1285
▁flaming	-11.1285
▁unbelieving	-11.1285
▁motion	-11.1285
▁planned	-11.1285
▁satisfied	-11.1285
▁shaken	-11.1286
▁violence	-11.1288
▁booty	-11.1288
▁straitened	-11.1289
▁truthfulness	-11.1291
▁zakah	-11.1293
mkuta	-11.1294
re	-11.1297
▁speaking	-11.1298
vifanya	-11.1302
▁preaching	-11.1303
▁poured	-11.1304
▁doubled	-11.1311
▁reveals	-11.1311
▁perceived	-11.1313
▁kile	-11.132
▁disgraced	-11.1327
▁yatawa	-11.1329
hisabu	-11.133
▁kuta	-11.1334
▁hot	-11.1339
agano	-11.1342
ewa	-11.1347
▁attracti	-11.1355
▁thrones	-11.1359
▁often	-11.137
▁ulimwengu	-11.138
▁sawasawa	-11.138
▁ukamilifu	-11.138
▁watiifu	-11.138
▁ulinzi	-11.138
▁yatima	-11.138
dufu	-11.138
▁barugumu	-11.1381
▁chetu	-11.1381
▁umetakasika	-11.1381
▁waombezi	-11.1381
▁uziwi	-11.1381
▁usingizi	-11.1382
▁viovu	-11.1384
▁uchungu	-11.1384
pasua	-11.1384
▁tuliwaangamiza	-11.1386
▁fedh	-11.1386
▁hawataweza	-11.1387
▁kusoma	-11.1387
▁snatch	-11.1388
▁wakiyafany	-11.1388
▁ak	-11.1389
teremshiwa	-11.1391
rani	-11.1391
▁makh	-11.1392
▁atakusameheni	-11.1394
▁umetoka	-11.1394
▁zisio	-11.1395
▁walikanusha	-11.1395
▁kudhulumiwa	-11.1396
▁akali	-11.14
▁kumtii	-11.14
kitakacho	-11.1401
▁kuogopa	-11.1405
▁waters	-11.1406
▁nisi	-11.1407
▁wasafiri	-11.141
rog	-11.1412
▁trusted	-11.1414
▁wanatoa	-11.1416
kunasihini	-11.1416
teremshwa	-11.142
▁section	-11.144
▁scribe	-11.1441
▁wrongdoer	-11.1441
▁comm	-11.1443
▁huw	-11.1453
▁whil	-11.1455
▁slip	-11.1461
▁wageni	-11.147
tambua	-11.147
▁nitam	-11.1472
▁tukio	-11.1472
▁vipen	-11.1475
▁confront	-11.1476
▁angry	-11.1477
▁livestock	-11.1477
▁ngawira	-11.1477
▁poorrate	-11.1477
▁reconciliation	-11.1477
▁council	-11.1477
▁plenty	-11.1477
▁associating	-11.1477
ahukumu	-11.1478
▁middle	-11.1478
▁unyonge	-11.1479
▁intercourse	-11.1479
▁haija	-11.1479
▁watchful	-11.148
▁deprived	-11.148
▁tulicho	-11.1482
▁sworn	-11.1483
▁visi	-11.1483
ifu	-11.1485
▁abundantly	-11.1487
▁itakuwaje	-11.1489
▁oil	-11.1489
▁erring	-11.1495
gawany	-11.1497
▁hukumiwa	-11.1508
▁mnamuamini	-11.1513
those	-11.1517
▁freely	-11.1519
▁shinda	-11.1522
pokele	-11.1524
id	-11.1527
▁expound	-11.1529
but	-11.1531
▁bowed	-11.1532
kupeleke	-11.1534
▁march	-11.1536
khasiri	-11.1537
▁tuwe	-11.1544
▁kujieni	-11.155
wakanusha	-11.1555
▁repented	-11.1555
kengeuk	-11.1556
▁taraji	-11.1562
▁mtegemee	-11.1562
▁commandments	-11.1562
▁tolewa	-11.1563
▁waachilie	-11.1572
▁wanangojea	-11.1577
up	-11.1577
▁descends	-11.1579
nzu	-11.158
▁parables	-11.1585
▁wanyenyekevu	-11.1587
teuwa	-11.1588
▁khiari	-11.159
migrated	-11.1593
▁wataka	-11.1607
▁breaks	-11.1611
tegemee	-11.1615
▁uislamu	-11.1619
▁reproach	-11.1623
▁panda	-11.1624
▁doubts	-11.1625
▁explanation	-11.1636
▁portent	-11.1636
▁chief	-11.1637
▁kupiga	-11.1638
ridhia	-11.1646
▁tukawapelek	-11.165
ikataa	-11.1653
▁returns	-11.1657
kuahidini	-11.1659
▁kuwaongoa	-11.166
▁display	-11.1661
▁assist	-11.1661
▁israil	-11.1664
choche	-11.1667
uitable	-11.1668
▁level	-11.1671
▁grew	-11.1672
▁hostility	-11.1672
▁independent	-11.1672
▁kinsmen	-11.1672
▁sunrise	-11.1672
▁treacherous	-11.1672
▁yunus	-11.1672
▁allseeing	-11.1672
▁convinced	-11.1672
▁mkamchamngu	-11.1672
▁mchanga	-11.1672
▁plotting	-11.1673
▁hawasikii	-11.1673
▁subdued	-11.1674
▁kok	-11.1675
▁suckle	-11.1681
▁boastful	-11.1691
▁haramu	-11.1694
▁plainly	-11.1699
▁waabudu	-11.1703
inti	-11.1711
▁anot	-11.1716
▁cross	-11.1718
▁blamed	-11.1718
adhibu	-11.1722
▁respited	-11.1725
uwaonye	-11.1729
▁nipe	-11.1729
▁wakuta	-11.1733
▁tupe	-11.1737
▁amid	-11.175
▁huwaon	-11.1752
▁invites	-11.1755
▁burdened	-11.1759
▁tupa	-11.1764
▁hastening	-11.1769
▁kaamili	-11.1771
▁mapumziko	-11.1771
▁kadhaa	-11.1771
▁lu	-11.1772
▁kumcha	-11.1774
▁tutamw	-11.1781
▁plots	-11.1786
tolea	-11.1787
▁covers	-11.1793
▁uzazi	-11.1797
▁kuingi	-11.1798
▁wakiku	-11.1817
▁retain	-11.1822
▁limit	-11.183
▁andikwa	-11.1842
▁assert	-11.1846
▁refrain	-11.1846
▁mkiya	-11.1847
himidi	-11.1855
▁inside	-11.1865
▁extravagant	-11.1867
▁kipi	-11.1868
▁violate	-11.1868
▁bright	-11.1869
▁glass	-11.1871
▁obstinate	-11.1871
▁insolence	-11.1871
▁across	-11.1871
▁loud	-11.1871
▁incurred	-11.1871
▁justified	-11.1871
▁madman	-11.1871
▁beba	-11.1872
▁adultery	-11.1872
▁exact	-11.1873
▁milk	-11.1873
awaadhibu	-11.1879
▁mustered	-11.1879
itakuwa	-11.1883
khofu	-11.1884
▁atoms	-11.1886
▁honored	-11.1887
alipw	-11.1892
▁hills	-11.1893
kusudi	-11.1908
▁anaku	-11.1909
jaribio	-11.1911
▁diminish	-11.1912
▁kutosha	-11.1916
▁lako	-11.1919
▁por	-11.1933
▁mnani	-11.194
▁kitoa	-11.1966
▁maangamizo	-11.1972
▁wajinga	-11.1972
▁kuwapa	-11.1975
▁hawafahamu	-11.1975
▁acting	-11.1979
kwend	-11.1983
▁greatly	-11.199
▁evils	-11.1993
kufikish	-11.201
liya	-11.2018
▁rush	-11.2032
▁multitude	-11.2038
▁hawakuon	-11.204
▁ordinance	-11.2041
▁goal	-11.2047
tegemea	-11.2059
ikanusha	-11.2061
▁hallow	-11.2064
▁wan	-11.2067
▁cleanse	-11.2068
▁eager	-11.2072
▁mkeo	-11.2072
▁pleasant	-11.2074
▁repay	-11.2074
▁aloud	-11.2074
▁clarify	-11.2074
▁expiation	-11.2074
▁haughty	-11.2074
▁recline	-11.2074
▁residence	-11.2074
uivalent	-11.2074
▁utiifu	-11.2074
▁kulipa	-11.2074
▁foremost	-11.2074
▁kinship	-11.2074
▁scald	-11.2074
▁confused	-11.2075
▁deafness	-11.2076
▁room	-11.2076
▁approaches	-11.2077
▁summoned	-11.2082
▁potent	-11.2083
▁wameongoka	-11.209
▁iteremsha	-11.2096
▁salat	-11.2098
biwa	-11.2098
▁shining	-11.2099
▁overtakes	-11.2103
▁nusu	-11.2103
▁fields	-11.2107
mjia	-11.2113
▁gathering	-11.2123
nigh	-11.2128
▁enrich	-11.2142
▁rightful	-11.2145
▁walking	-11.2145
nda	-11.2146
▁doomed	-11.2147
ihuisha	-11.2154
▁hamkuwa	-11.2169
▁piga	-11.2171
▁ushirikina	-11.218
▁praying	-11.2184
▁waharibifu	-11.2185
▁wekewa	-11.2188
semeza	-11.2191
andali	-11.2198
simama	-11.2199
funge	-11.2203
▁ovyo	-11.2206
jifanyi	-11.2206
▁uasi	-11.221
dhihiriki	-11.2218
▁dum	-11.2219
our	-11.2222
▁lion	-11.2226
rithi	-11.2234
▁kings	-11.2237
▁nilete	-11.2241
▁immortal	-11.2245
▁degree	-11.2246
funga	-11.2247
ze	-11.2259
kubwa	-11.2271
▁divert	-11.2275
▁perpetual	-11.2277
▁brocade	-11.2281
▁crucify	-11.2281
▁stiffnecked	-11.2281
▁variance	-11.2281
▁understood	-11.2281
▁nooh	-11.2281
▁meem	-11.2282
▁wipe	-11.2282
▁thrust	-11.2284
▁mkwa	-11.2285
▁immediately	-11.2285
▁wholly	-11.2288
iacha	-11.2288
▁ample	-11.229
▁storm	-11.2291
▁tukaya	-11.2292
▁mjia	-11.2295
▁uncle	-11.2295
▁realized	-11.2295
▁amends	-11.2303
▁tuliy	-11.2307
mbe	-11.231
▁aided	-11.231
▁capable	-11.2313
lie	-11.2315
▁ability	-11.2317
▁sorcerers	-11.2336
▁loads	-11.2338
▁rocks	-11.2346
▁served	-11.2348
▁protected	-11.2362
fungwa	-11.2365
▁waju	-11.2373
▁mortals	-11.2379
▁ours	-11.2386
zingatii	-11.2386
mana	-11.239
thibitish	-11.2398
▁thul	-11.2416
▁ameku	-11.2416
chache	-11.242
▁harmed	-11.2432
▁de	-11.2437
▁yapit	-11.2448
▁encompass	-11.2455
▁usitu	-11.2455
▁rope	-11.2457
▁habitation	-11.2457
usi	-11.2459
tolewa	-11.246
▁season	-11.2461
▁mnawa	-11.2467
semi	-11.2475
▁jest	-11.2478
emi	-11.2478
▁exhort	-11.2482
▁address	-11.2482
▁disperse	-11.2486
▁confusion	-11.2493
▁embark	-11.2493
▁sperm	-11.2493
▁amusement	-11.2493
▁restingplace	-11.2493
▁warm	-11.2494
▁infidelity	-11.2494
▁sold	-11.2495
▁fetters	-11.2496
▁surrounded	-11.25
▁mujrim	-11.2502
▁higher	-11.2503
▁providers	-11.2504
▁tulimw	-11.2509
▁abandoned	-11.251
▁haiw	-11.2511
▁instruct	-11.2512
▁preserved	-11.2512
▁taif	-11.2518
angush	-11.2519
▁tunam	-11.2533
mshirikisha	-11.2534
▁rejea	-11.2536
iogopa	-11.2536
▁marks	-11.2541
kunjuli	-11.2543
▁farthe	-11.2546
▁crimes	-11.2551
kapotea	-11.2552
people	-11.2555
containing	-11.2558
kuonyeni	-11.256
pigeni	-11.26
▁mtegemewa	-11.261
taye	-11.2614
▁wasia	-11.2635
▁hatam	-11.2646
▁kurudi	-11.2655
miliki	-11.2655
▁pair	-11.2664
▁shape	-11.2667
▁village	-11.2673
▁f	-11.2678
▁journeys	-11.2684
mnusuru	-11.2692
▁extract	-11.2709
▁wool	-11.2709
▁inevitable	-11.2709
▁neighbour	-11.2709
▁psalms	-11.2709
▁gently	-11.2709
▁competent	-11.2709
▁honourably	-11.2709
▁kabah	-11.2709
▁mwanangu	-11.271
▁unwillingly	-11.271
▁space	-11.271
▁defiantly	-11.271
▁reasonable	-11.2711
▁emigrants	-11.2711
▁rejecters	-11.2711
▁sentence	-11.2712
▁strives	-11.2713
▁befallen	-11.2714
▁relieve	-11.2714
▁constantly	-11.2715
▁oppressors	-11.2718
▁healing	-11.272
▁tablets	-11.2723
waoni	-11.2725
regarded	-11.2727
▁akarudi	-11.2727
izunguka	-11.2731
mwogop	-11.2737
mngu	-11.274
▁tulim	-11.275
likuwaje	-11.2751
timize	-11.2756
ied	-11.2758
okoe	-11.2771
hearer	-11.2776
asiku	-11.2778
ted	-11.2779
▁g	-11.2782
punguziw	-11.2784
naogopa	-11.2784
▁ingrate	-11.2785
mtakase	-11.279
nunua	-11.2791
▁umeni	-11.2793
wenzake	-11.2798
▁r	-11.2802
fakiri	-11.2804
▁watakuj	-11.2804
▁subhana	-11.281
▁mix	-11.2816
apita	-11.2819
▁dhul	-11.2821
▁likawa	-11.2822
▁ikasem	-11.2824
espite	-11.2826
uri	-11.283
▁unda	-11.2832
komboa	-11.2843
▁sand	-11.2847
▁wax	-11.2853
▁sali	-11.2854
▁mud	-11.2856
▁concern	-11.2873
eneza	-11.2878
msamehe	-11.2885
ileth	-11.2898
▁conceive	-11.2903
shambuli	-11.2907
angamizwa	-11.2908
▁raha	-11.2911
▁steal	-11.2913
▁wonders	-11.2915
▁step	-11.2921
▁fatigue	-11.2922
▁devise	-11.2922
▁smooth	-11.2926
▁wakafa	-11.2929
▁fedheha	-11.293
▁huzuni	-11.293
▁kifudifudi	-11.293
▁mashairi	-11.293
▁silent	-11.293
▁wavulana	-11.293
▁lulu	-11.293
▁matokeo	-11.293
▁nafaka	-11.293
▁cleave	-11.293
▁mecca	-11.293
▁climb	-11.293
▁apparent	-11.293
▁kijinga	-11.293
▁fanana	-11.293
▁kisasi	-11.293
▁usiwatii	-11.293
▁jipya	-11.293
▁lillahi	-11.2931
▁tasa	-11.2931
▁dari	-11.2931
▁rahmani	-11.2931
▁changu	-11.2932
▁kuto	-11.2932
sahilish	-11.2932
▁rose	-11.2932
▁confer	-11.2932
▁verify	-11.2933
▁vikubwa	-11.2933
▁nitakulete	-11.2933
▁maudhi	-11.2933
fuatwa	-11.2934
▁kumsafi	-11.2934
▁fingers	-11.2934
▁kulaumiwa	-11.2935
haribu	-11.2935
▁amewalaani	-11.2935
▁ufunuo	-11.2935
▁reduce	-11.2937
▁bethink	-11.2937
▁mtajua	-11.2937
▁bayana	-11.2937
▁hawatasikia	-11.2937
patiliz	-11.2938
▁dispersed	-11.2938
▁mkikufuru	-11.2938
▁wanapuuza	-11.2939
▁tisa	-11.294
▁imagined	-11.2941
▁hunt	-11.2944
▁liwe	-11.2945
▁kukimbia	-11.2945
▁majani	-11.2945
▁kuvumilia	-11.2946
▁fools	-11.2946
▁weaken	-11.2948
▁marked	-11.295
▁numbers	-11.2952
▁vipimo	-11.2953
▁arrives	-11.2953
asemwa	-11.2954
aadamu	-11.2955
▁disposed	-11.2955
▁fakhari	-11.2955
▁tayari	-11.2955
▁kiapo	-11.2956
▁angamia	-11.2956
▁dhara	-11.2957
▁mzin	-11.2957
▁pambana	-11.2958
funulia	-11.296
▁sounded	-11.2961
▁drinks	-11.2963
zozana	-11.2963
▁kusali	-11.2963
wapigi	-11.2971
▁akato	-11.2975
▁kipo	-11.2976
▁mmekuwa	-11.2977
▁wakitaka	-11.2982
▁gained	-11.2984
▁tup	-11.2985
ugha	-11.2986
▁presently	-11.2989
simulia	-11.2991
▁kumuamini	-11.2992
alii	-11.2992
▁outward	-11.2993
yafanya	-11.2994
▁feareth	-11.2995
▁amekuja	-11.2997
kunjufu	-11.2999
▁kukujieni	-11.3
▁ends	-11.3001
suko	-11.3003
▁viumba	-11.3006
led	-11.3014
▁mijini	-11.3019
gonjwa	-11.3022
▁kumpa	-11.3024
▁prays	-11.3032
▁withholds	-11.3035
▁miminika	-11.3037
▁kitendo	-11.3042
▁pembe	-11.3042
▁udhia	-11.3044
▁magog	-11.3046
▁hatuto	-11.3049
▁shirikisha	-11.305
▁koo	-11.3055
▁waonye	-11.3059
▁itakuja	-11.3066
▁kukataa	-11.3071
other	-11.3071
▁nunua	-11.3088
harimish	-11.3088
▁kesh	-11.3089
▁kutua	-11.3094
▁washike	-11.3096
▁zama	-11.3106
▁red	-11.3108
▁kufikia	-11.3108
▁sikuwa	-11.3114
▁mistake	-11.3119
▁page	-11.3121
▁goliat	-11.3122
▁garment	-11.3123
▁token	-11.3129
kuona	-11.3129
▁invit	-11.3133
is	-11.3143
▁compact	-11.3144
▁entrust	-11.3145
▁deviate	-11.3148
▁fierce	-11.3152
▁clement	-11.3152
imposed	-11.3152
▁oblivious	-11.3155
▁pilgrim	-11.3156
▁mfululizo	-11.3156
▁thunder	-11.3156
▁wayasemayo	-11.3156
▁fulani	-11.3156
▁lump	-11.3156
▁infant	-11.3156
▁kisicho	-11.3156
▁mwenziwe	-11.3156
▁hateful	-11.3156
▁waajibu	-11.3156
▁maamki	-11.3156
▁mazingatio	-11.3157
▁repose	-11.3157
▁thirst	-11.3157
▁compared	-11.3157
▁settlement	-11.3157
▁uwazi	-11.3158
▁hugeuk	-11.3158
▁lab	-11.3159
▁victors	-11.3159
▁reprieved	-11.316
▁seated	-11.3161
▁precise	-11.3162
▁devo	-11.3162
▁ere	-11.3163
▁pregnan	-11.3164
▁tukawapa	-11.3166
zidi	-11.3166
▁weeping	-11.3168
▁mkweli	-11.3173
▁radi	-11.3175
▁laini	-11.3176
▁separated	-11.3178
▁nalo	-11.3179
▁previous	-11.318
▁carrie	-11.318
▁co	-11.3181
▁succeeded	-11.3182
▁pronounce	-11.3182
tangulia	-11.3182
▁kuzui	-11.3188
▁huna	-11.3192
washika	-11.3193
wapeleke	-11.3194
uona	-11.3197
mwita	-11.3199
▁deck	-11.3202
▁nionyeshe	-11.3203
▁wrongs	-11.3203
▁harimish	-11.3209
▁wepesi	-11.3209
▁geuzwa	-11.3218
▁mshike	-11.322
▁kujitosh	-11.3221
ngwa	-11.323
waingilia	-11.3232
dhaifu	-11.3232
elewa	-11.3242
▁jitenge	-11.3243
▁jivuna	-11.3245
▁imekufiki	-11.3246
▁kwacho	-11.3246
▁nobles	-11.3248
andiko	-11.3253
▁confess	-11.3258
▁vitani	-11.3262
▁kurehem	-11.327
▁ncha	-11.3271
▁pengine	-11.3271
▁nafasi	-11.3271
▁pupa	-11.3271
▁mafisadi	-11.3273
chomoz	-11.3275
protecting	-11.3286
memuumba	-11.3306
▁lust	-11.3307
▁dhaifu	-11.331
▁deceit	-11.3311
▁needs	-11.3311
meghafilika	-11.3313
kwambi	-11.3314
▁vunja	-11.3315
▁umem	-11.3321
▁kufung	-11.3323
▁mashuk	-11.3329
tende	-11.3329
▁watoa	-11.3338
▁contract	-11.3338
▁approve	-11.3344
kaamini	-11.3345
▁pen	-11.3346
▁supplication	-11.3351
▁womb	-11.3352
▁abject	-11.3353
▁transgressor	-11.3353
▁interest	-11.3358
takabari	-11.3359
▁hawe	-11.3368
▁pagan	-11.3368
wapa	-11.337
hukumiwa	-11.3371
tii	-11.3372
▁akamfany	-11.3377
▁intense	-11.3383
▁hurl	-11.3383
dai	-11.3384
▁conspire	-11.3385
sikio	-11.3386
▁contrary	-11.3387
▁rectitude	-11.3387
▁thread	-11.3387
▁bidding	-11.3387
▁description	-11.3387
▁culprits	-11.3388
aelez	-11.3388
▁van	-11.3388
▁monk	-11.3388
▁forsaken	-11.3389
▁vol	-11.3389
▁fujo	-11.3389
▁aggression	-11.339
▁restricts	-11.339
▁tears	-11.3395
▁workers	-11.3396
▁longer	-11.3399
▁greatness	-11.3403
▁impose	-11.3404
▁hasira	-11.3404
▁mwanawe	-11.3405
▁mkam	-11.3405
▁responsibility	-11.3408
▁incur	-11.3409
▁jiepushe	-11.3412
uudhi	-11.3414
zijua	-11.3423
▁mkop	-11.3426
there	-11.3436
ubu	-11.3456
▁veils	-11.3457
▁giver	-11.3459
▁thereat	-11.3464
▁ufanya	-11.3465
▁tukau	-11.3469
abu	-11.347
them	-11.3473
▁ate	-11.349
▁scale	-11.3493
▁entering	-11.3501
▁jahannam	-11.3504
uthi	-11.3505
ina	-11.3507
▁rithi	-11.3515
▁pursue	-11.3517
ilisha	-11.3527
▁tutakuw	-11.353
anza	-11.3532
▁fift	-11.3545
▁alleg	-11.3547
usian	-11.3548
▁yaacha	-11.355
▁creators	-11.3551
kitaka	-11.3553
▁intellect	-11.3586
▁forelock	-11.3588
▁defer	-11.359
▁records	-11.3592
▁win	-11.3596
▁watcher	-11.3597
kujaribuni	-11.3598
oeni	-11.3598
▁spouse	-11.3599
▁ordain	-11.36
lf	-11.3605
only	-11.3606
agreed	-11.3612
▁keeper	-11.3613
▁consult	-11.3624
▁affluent	-11.3624
▁afford	-11.3624
▁calumny	-11.3624
▁ignominy	-11.3624
▁rivals	-11.3624
▁insight	-11.3624
▁raging	-11.3624
▁consultation	-11.3624
▁vanity	-11.3624
▁misery	-11.3625
natumai	-11.3625
▁bought	-11.3625
▁vijana	-11.3626
▁corrupters	-11.3627
▁compeers	-11.3628
▁behaved	-11.3634
▁weary	-11.3635
itia	-11.3635
▁ondoka	-11.3635
▁reduced	-11.3635
▁apes	-11.3636
▁burst	-11.3637
▁inflicted	-11.364
▁hawafanyi	-11.3641
▁kindle	-11.3641
▁amezi	-11.3648
▁utao	-11.3648
▁karibia	-11.3653
itapo	-11.3659
▁legs	-11.3662
▁kindly	-11.367
▁baya	-11.3673
any	-11.3675
nyweshw	-11.3683
▁ja	-11.3691
▁sina	-11.3693
ombe	-11.3702
uacha	-11.3716
▁mweza	-11.3721
▁similitudes	-11.3724
▁offerings	-11.3737
▁watakusanywa	-11.3744
▁vika	-11.3745
▁alhamdulillahi	-11.3748
ifuata	-11.3753
ita	-11.3766
nywesha	-11.3768
enda	-11.3776
lout	-11.3777
deemed	-11.3782
▁sow	-11.3792
ipotea	-11.3813
▁labour	-11.3819
jengo	-11.3821
▁compel	-11.3822
kageuka	-11.3822
▁mate	-11.3824
▁drove	-11.3828
▁wood	-11.383
▁effort	-11.3831
tanguliza	-11.3831
▁polytheist	-11.3831
▁murder	-11.3833
washinda	-11.3834
▁tempt	-11.3834
unaweza	-11.3835
▁spite	-11.3837
▁reckon	-11.3841
▁proceed	-11.3842
▁prompt	-11.3849
chukue	-11.3863
▁achieve	-11.3865
▁worthless	-11.3866
▁excel	-11.3866
▁upper	-11.3866
▁wellac	-11.3866
amatassalat	-11.3866
▁canopy	-11.3866
▁omnipotent	-11.3866
▁scheming	-11.3866
▁spacious	-11.3866
▁beforehand	-11.3866
▁arrival	-11.3866
▁kimoja	-11.3866
uails	-11.3866
▁fitting	-11.3866
▁neglectful	-11.3867
▁repentant	-11.3867
▁sublime	-11.3867
▁buy	-11.3867
▁matandiko	-11.3867
▁totally	-11.3868
▁withheld	-11.387
midst	-11.3871
▁shin	-11.3872
▁hospitality	-11.3873
▁goblets	-11.3876
jengee	-11.3876
isikiti	-11.3879
▁similarly	-11.3881
hifadhi	-11.3904
▁rights	-11.3911
namuamini	-11.3916
ota	-11.3928
▁townships	-11.3931
▁umetu	-11.3933
▁msini	-11.3941
▁wash	-11.3946
▁flames	-11.3947
nipe	-11.3957
▁helpless	-11.3958
uahidi	-11.3959
▁inspire	-11.397
tupeni	-11.3972
▁inak	-11.3979
rudi	-11.3981
mwachi	-11.399
▁kusilimu	-11.3996
▁samehe	-11.4019
ngazi	-11.402
▁tulizi	-11.4031
▁msim	-11.4039
onjesh	-11.4058
▁inner	-11.406
udhi	-11.4071
mrithi	-11.4073
▁tradition	-11.4079
▁unbeliever	-11.408
▁foe	-11.4085
▁muster	-11.4101
▁beholder	-11.4102
▁weep	-11.4102
▁expand	-11.4104
▁engage	-11.4109
▁illegal	-11.4111
▁postpone	-11.4112
▁strict	-11.4115
▁agony	-11.4115
▁allseer	-11.4115
▁courage	-11.4115
▁heaviness	-11.4115
▁overturned	-11.4115
▁tilth	-11.4115
▁choice	-11.4115
▁crucified	-11.4115
▁herself	-11.4115
▁opposite	-11.4115
▁excesses	-11.4115
▁beast	-11.4116
▁compelled	-11.4117
▁immaculate	-11.4118
▁travelling	-11.4118
yatoa	-11.4119
▁accountable	-11.412
▁wak	-11.4125
▁kukunusuruni	-11.4126
▁pronounced	-11.4127
▁glance	-11.4129
▁rows	-11.4131
▁illa	-11.4134
▁slaughtering	-11.4135
wasi	-11.4137
jibu	-11.4138
▁related	-11.4141
▁wasamehe	-11.4141
waonye	-11.4144
no	-11.4145
beb	-11.4147
▁pleaseth	-11.4164
furahia	-11.4168
▁hawaja	-11.4174
▁vow	-11.4175
under	-11.4182
siwe	-11.4183
▁lifeless	-11.4195
▁muwa	-11.4203
hood	-11.4204
▁fik	-11.4215
▁gifts	-11.4216
also	-11.4219
kufaeni	-11.4223
ced	-11.4223
▁pit	-11.4233
ive	-11.4233
▁guarding	-11.4244
onyeshe	-11.4261
▁propound	-11.4272
▁falsehoods	-11.4282
waharimishi	-11.4288
▁leader	-11.4315
▁sh	-11.432
▁proportion	-11.4326
▁khia	-11.4331
▁idolater	-11.4334
▁height	-11.4341
▁tunazi	-11.4344
raising	-11.4345
▁zikawa	-11.4347
▁zim	-11.4348
gog	-11.4354
▁tax	-11.4357
▁distort	-11.4358
▁surface	-11.4361
▁assume	-11.4363
▁expose	-11.4364
▁renounce	-11.4364
▁decisive	-11.4365
▁grand	-11.4366
▁christ	-11.4369
uillity	-11.437
▁attabari	-11.437
▁catch	-11.437
▁horizon	-11.437
▁obeisance	-11.437
▁salvation	-11.437
▁strove	-11.437
▁search	-11.437
sacrificial	-11.437
▁evildoing	-11.4371
▁thirsty	-11.4372
▁felt	-11.4373
▁vinam	-11.4373
▁overwhelmed	-11.4373
▁finished	-11.4373
▁exclaimed	-11.4374
▁mkiyafanya	-11.4376
▁perverted	-11.4378
▁accomplished	-11.4379
iance	-11.4382
▁traces	-11.4384
adopted	-11.4385
ndeni	-11.4387
▁shaped	-11.439
▁steps	-11.4392
▁shed	-11.4395
▁afore	-11.4395
▁detailed	-11.4395
oga	-11.4404
▁beholders	-11.441
▁borne	-11.4411
▁kiu	-11.4411
safishe	-11.4415
punguza	-11.4429
▁cows	-11.4437
▁lit	-11.4437
▁favored	-11.4448
▁reading	-11.4448
▁withdrew	-11.4455
dha	-11.4457
eaten	-11.4461
▁mia	-11.4461
▁hasty	-11.4477
▁tanga	-11.4482
jama	-11.4491
▁huya	-11.4494
▁hence	-11.4502
kitoa	-11.4511
▁ahidi	-11.4512
▁distinguish	-11.4517
hama	-11.4522
gana	-11.4527
▁wap	-11.453
mbi	-11.4532
▁dai	-11.4534
▁stands	-11.4543
le	-11.4543
▁thibiti	-11.4553
kanya	-11.4562
▁jaw	-11.4569
▁summon	-11.457
▁drinking	-11.4576
takatifu	-11.4581
tubia	-11.4599
▁action	-11.4603
▁forgets	-11.4606
▁fro	-11.4607
teremka	-11.4609
vua	-11.4609
pasuka	-11.4609
khiari	-11.4609
tawanya	-11.4621
▁sparing	-11.4627
▁assault	-11.4631
▁felicitous	-11.4631
▁magnify	-11.4631
▁opposition	-11.4631
▁sanctity	-11.4631
▁fornication	-11.4631
▁brightness	-11.4632
▁cherisher	-11.4632
▁dragged	-11.4633
▁hid	-11.4635
▁rejection	-11.4636
uieting	-11.4637
▁special	-11.4641
▁darknesses	-11.4644
▁distinguished	-11.4645
▁fragments	-11.4646
▁bag	-11.4648
▁exclusive	-11.4648
▁wakatengene	-11.465
▁stoned	-11.4652
▁earning	-11.4653
▁disclosed	-11.4655
lima	-11.4658
▁waku	-11.4659
▁roasted	-11.4661
▁efforts	-11.4669
dogo	-11.4685
▁experience	-11.4704
korofi	-11.4712
wapoteza	-11.4713
▁journeying	-11.4718
kutumikieni	-11.4731
what	-11.4733
uestionabl	-11.4734
hakikish	-11.4742
zaituni	-11.4743
kikhitalifiana	-11.4743
tafsir	-11.4745
hudhurishwa	-11.4746
▁mnafany	-11.4747
after	-11.4752
zidishiwa	-11.4755
▁shades	-11.4758
begu	-11.4763
ujiza	-11.4764
stahamili	-11.4764
hukumia	-11.4764
▁humdhikish	-11.4764
▁karibishwa	-11.4764
▁khiyana	-11.4764
▁kumbusha	-11.4764
▁ngome	-11.4764
▁upinzani	-11.4764
▁luuti	-11.4764
▁samaki	-11.4764
▁baatili	-11.4764
jiepusha	-11.4764
hajiri	-11.4765
nyoka	-11.4765
▁muujiza	-11.4765
▁katazwa	-11.4765
didimiza	-11.4765
▁kulala	-11.4765
▁minyororo	-11.4766
▁uzee	-11.4766
▁wakaacha	-11.4766
▁punj	-11.4766
▁wakitangatanga	-11.4766
▁vingine	-11.4766
▁kusanywa	-11.4766
▁kujuta	-11.4766
aongozw	-11.4767
▁langu	-11.4768
▁mgumu	-11.4769
▁tumetii	-11.477
▁kafara	-11.477
▁usihuzunike	-11.477
kiri	-11.477
▁inatoka	-11.4772
▁baki	-11.4776
▁mwovu	-11.4777
▁kusimama	-11.4777
▁watahudhurishwa	-11.4778
dharau	-11.4778
▁kura	-11.4781
▁itatokea	-11.4783
▁apotee	-11.4783
▁husamehe	-11.4783
▁almut	-11.4783
▁masters	-11.4785
▁ameangamia	-11.4787
▁yalioje	-11.4787
▁huli	-11.4788
simame	-11.4788
▁kupambanua	-11.4788
kongwe	-11.4791
▁kutubu	-11.4792
hari	-11.4793
▁wakhalifu	-11.4796
▁unabii	-11.4798
▁shehen	-11.48
▁kupit	-11.4801
▁kukufikieni	-11.4803
▁lime	-11.4803
▁tawanyika	-11.4805
▁viko	-11.4806
ziba	-11.4809
nja	-11.4812
▁kuwaadhibu	-11.4812
▁tanda	-11.4816
uestions	-11.4816
▁kuoko	-11.4817
▁anaya	-11.4821
▁lile	-11.4822
▁mpe	-11.4823
▁wameghafilika	-11.4824
▁kucha	-11.4829
▁tutafufuliwa	-11.4829
fadhilish	-11.4833
▁ninusuru	-11.4838
▁likiwa	-11.484
▁watatoka	-11.484
▁troops	-11.4841
▁wataona	-11.4844
talip	-11.4845
ihimiza	-11.485
▁collect	-11.485
wekewa	-11.4851
tainama	-11.4851
▁determine	-11.4852
▁wound	-11.4853
waadhibu	-11.4855
▁tajwa	-11.4858
▁afternoon	-11.4863
▁relative	-11.4864
▁kutaraji	-11.4866
▁captive	-11.4866
▁plunge	-11.4868
▁shew	-11.4872
▁wanawe	-11.4873
▁conscious	-11.4875
levi	-11.4877
▁wafunika	-11.488
▁badr	-11.488
▁kukhitalifiana	-11.4889
▁tum	-11.4893
▁humiliate	-11.4897
▁brief	-11.4899
▁madina	-11.4899
▁discord	-11.4899
▁bahati	-11.4899
▁clusters	-11.4899
▁creating	-11.4899
▁deserving	-11.4899
▁kitalu	-11.4899
▁multiply	-11.4899
▁narrow	-11.4899
▁turmoil	-11.4899
▁twothird	-11.4899
▁whither	-11.4899
▁deceased	-11.4899
▁ownselves	-11.49
▁fitina	-11.49
▁pingu	-11.49
▁exhortation	-11.49
▁abasement	-11.49
▁ambush	-11.49
▁tillage	-11.49
▁legacy	-11.49
▁exhausted	-11.49
▁prosperity	-11.49
▁naam	-11.49
▁coat	-11.49
▁confirmation	-11.4901
▁outcast	-11.4901
▁ascertain	-11.4902
▁maza	-11.4902
▁dutiful	-11.4903
▁defender	-11.4903
▁israelites	-11.4904
▁buried	-11.4904
▁amemuumba	-11.4905
▁impugned	-11.4906
▁rites	-11.4907
▁realm	-11.4907
▁publicly	-11.4907
▁amount	-11.4907
▁visa	-11.4909
▁scorching	-11.4909
▁proportioned	-11.4911
▁tempted	-11.4911
others	-11.4912
▁straitens	-11.4914
▁assembled	-11.4914
▁nose	-11.4915
▁continued	-11.4923
▁beg	-11.4925
▁recognized	-11.4926
▁hindered	-11.4929
him	-11.4931
▁rehemu	-11.4933
▁mjua	-11.4933
nakuoneni	-11.4934
▁kesho	-11.4938
▁expected	-11.494
▁tokens	-11.4942
▁fleeing	-11.4942
kweli	-11.4949
▁il	-11.4956
aruni	-11.4959
▁meal	-11.4964
pitia	-11.4968
▁roads	-11.4969
▁performed	-11.497
▁niki	-11.4982
bila	-11.4982
▁mnaona	-11.4983
prophet	-11.4983
▁trying	-11.4984
▁sing	-11.4985
▁lack	-11.4986
kunywa	-11.4991
will	-11.4995
▁zili	-11.4996
kiona	-11.5003
▁kusimamish	-11.5006
sende	-11.5023
▁greed	-11.5024
bainisha	-11.503
▁vyetu	-11.5036
▁mwangalizi	-11.5036
▁hawafanikiwi	-11.5037
▁wakitafut	-11.5038
▁hamana	-11.5041
wafiki	-11.5041
▁kumwongoa	-11.5042
ojo	-11.5043
▁nyumbani	-11.5044
▁kuandika	-11.5044
▁wanapenda	-11.5045
husu	-11.5046
▁kutubia	-11.5047
▁yaliyoje	-11.5052
▁mchache	-11.5064
▁mafuta	-11.5065
▁kufedhehe	-11.5071
▁remaining	-11.5072
nisha	-11.5074
▁gumu	-11.5075
▁msile	-11.5079
kuzaliwa	-11.508
akuamrish	-11.5083
▁lots	-11.5088
▁kuuwa	-11.5091
▁kuwasaidia	-11.5093
iwe	-11.5099
pitisha	-11.51
▁teaches	-11.512
▁wapoteza	-11.5121
▁nitoka	-11.5125
itandaza	-11.5126
▁arm	-11.5127
▁wanafun	-11.5127
▁endeavour	-11.5127
▁remembering	-11.5132
▁clothe	-11.5133
▁pastime	-11.5135
ngu	-11.5136
▁mabu	-11.5136
▁piece	-11.514
tamfa	-11.5151
▁listener	-11.5154
uzima	-11.5155
▁tafut	-11.5157
rt	-11.5158
iangamiza	-11.5163
▁resolve	-11.5168
▁fold	-11.5172
▁entertain	-11.5175
▁emigrate	-11.5175
▁blasphemy	-11.5175
▁cognizant	-11.5175
▁knees	-11.5175
▁soldiers	-11.5175
▁vidole	-11.5175
▁void	-11.5175
▁inshallah	-11.5175
▁frown	-11.5175
▁headlong	-11.5175
▁absolve	-11.5175
▁stick	-11.5175
▁blameworthy	-11.5176
▁gambling	-11.5176
▁outspread	-11.5176
▁wild	-11.5177
▁invisible	-11.5178
▁kuijua	-11.5178
kubalia	-11.5178
▁absent	-11.5179
▁shuaibu	-11.5179
▁thibitish	-11.5179
▁msij	-11.5181
▁resolved	-11.5183
▁pomegranates	-11.5184
▁alternate	-11.5186
▁mazito	-11.5186
▁relieved	-11.5186
nadi	-11.519
▁bringer	-11.5191
▁wanazikataa	-11.5191
▁fed	-11.5195
▁sikukwambi	-11.5202
own	-11.5202
▁succoured	-11.5203
▁roots	-11.5206
ulizia	-11.5208
▁pouring	-11.5209
▁hawi	-11.5209
▁palaces	-11.521
▁paltr	-11.5214
▁devoured	-11.5215
▁sink	-11.5216
▁excessive	-11.5217
▁tunaya	-11.522
▁walim	-11.5227
▁pao	-11.5231
▁helps	-11.5239
▁wakafuat	-11.5244
moreover	-11.5245
ngia	-11.5246
tunuki	-11.5251
▁heal	-11.5251
baki	-11.526
▁awhile	-11.526
niabudu	-11.5263
▁abudu	-11.5273
▁belonging	-11.5276
▁atakayo	-11.5276
lifted	-11.5277
khaini	-11.5277
▁ombeni	-11.5285
▁hatukuon	-11.5293
ory	-11.5302
remember	-11.5305
zao	-11.5307
▁tukiku	-11.5309
▁doer	-11.5312
▁soil	-11.5314
▁unam	-11.5314
▁kukuondole	-11.5323
▁dwel	-11.5325
uent	-11.5325
▁kuti	-11.5338
▁mkikhitalifiana	-11.5338
▁miliki	-11.5338
▁mwe	-11.5344
▁ameni	-11.5347
▁tumeki	-11.5349
ar	-11.5369
▁sa	-11.5369
awapenda	-11.5378
▁coin	-11.5382
too	-11.5384
▁amass	-11.5388
▁tuliwap	-11.5391
▁akazifany	-11.5397
▁hawakum	-11.5399
▁exist	-11.5413
▁diversion	-11.5419
▁boat	-11.5422
▁palace	-11.5424
▁karibuni	-11.5425
▁confound	-11.5434
vijua	-11.5439
▁drag	-11.5442
▁martyr	-11.5448
▁correct	-11.5455
▁outstrip	-11.5456
▁addition	-11.5459
▁deride	-11.5459
▁abroad	-11.5459
▁fancies	-11.5459
▁heritage	-11.5459
▁hollow	-11.5459
▁illuminating	-11.5459
▁korah	-11.5459
▁makimbilio	-11.5459
▁perchance	-11.5459
▁sanction	-11.5459
▁shield	-11.5459
▁stubborn	-11.5459
▁usafi	-11.5459
▁eisa	-11.5459
▁compassion	-11.5459
▁necessity	-11.5459
▁clan	-11.5459
▁crookedness	-11.546
▁forehead	-11.5461
▁wedlock	-11.5461
▁exaltations	-11.5462
▁pitch	-11.5462
▁misguided	-11.5462
▁hostile	-11.5463
▁gerezani	-11.5463
iamini	-11.5463
▁acceptable	-11.5463
▁fables	-11.5464
▁crushed	-11.5465
flung	-11.5467
▁bank	-11.5474
▁fisha	-11.5475
▁safely	-11.5476
▁knowledgeable	-11.5479
▁hedhi	-11.548
pi	-11.5488
▁colours	-11.5491
▁vows	-11.5499
▁ghafilika	-11.55
twa	-11.5502
▁eventual	-11.5504
mping	-11.551
▁closed	-11.551
▁approached	-11.5518
▁kuongoeni	-11.5526
▁mmewa	-11.5527
▁happens	-11.5529
ameumbwa	-11.5531
▁wakiona	-11.5532
fuati	-11.5544
ble	-11.5548
▁coverings	-11.5549
fahamu	-11.5551
▁heareth	-11.5555
▁measured	-11.5556
▁fun	-11.5559
kaacha	-11.5564
▁mwomba	-11.5568
▁pri	-11.5576
▁sever	-11.5578
nywesh	-11.5585
▁geuz	-11.5591
moses	-11.5597
eleze	-11.56
kalifish	-11.5604
▁jalut	-11.5604
▁baraabara	-11.5604
▁mahakimu	-11.5606
having	-11.561
▁mutt	-11.561
▁hawafuati	-11.5611
gotten	-11.5616
nyeshe	-11.5624
kini	-11.5626
tches	-11.5628
ors	-11.5635
rehemu	-11.5636
▁fanikiwa	-11.5637
nakusome	-11.5643
▁hatukuwatum	-11.5647
▁mkizi	-11.5648
msabihi	-11.5667
▁kupelek	-11.5678
▁stir	-11.568
▁muangali	-11.5684
▁possesses	-11.5687
▁wanapigan	-11.5698
▁doubted	-11.5702
▁arise	-11.5714
▁roof	-11.5716
▁field	-11.5716
▁surround	-11.5727
sahaulish	-11.5727
ombi	-11.5729
▁kinam	-11.573
somwa	-11.5732
▁mid	-11.5737
▁beguile	-11.5738
▁bargain	-11.5738
oth	-11.5739
▁redeem	-11.574
▁heap	-11.574
▁accomplish	-11.574
shirikisha	-11.5742
▁prepare	-11.5742
kukanusha	-11.5743
te	-11.5747
▁alaikum	-11.5751
▁changing	-11.5751
▁defiance	-11.5751
▁manifold	-11.5751
▁oftreturning	-11.5751
▁screen	-11.5751
▁stubble	-11.5751
▁symbol	-11.5751
▁determination	-11.5751
▁dying	-11.5751
▁marium	-11.5752
▁upside	-11.5753
▁idris	-11.5754
if	-11.5755
enea	-11.5756
▁depths	-11.5757
▁distinctly	-11.5758
▁prolonged	-11.5759
▁tahadharini	-11.5759
▁nearness	-11.5761
▁board	-11.5764
▁empty	-11.5764
▁prevailed	-11.5778
▁advanced	-11.5779
kasirika	-11.578
▁laughed	-11.5781
▁laughing	-11.5788
vunji	-11.579
nene	-11.579
▁misr	-11.5801
kuwafaa	-11.5804
▁events	-11.5829
ari	-11.5832
▁directs	-11.5844
▁msiki	-11.5844
umbe	-11.5845
▁haziku	-11.5845
▁debts	-11.5848
▁fur	-11.5851
▁pardoning	-11.5852
▁elekez	-11.5859
ling	-11.5867
▁forwarded	-11.5867
▁befit	-11.5868
namjua	-11.5874
▁intimate	-11.5876
kanushwa	-11.5886
▁easts	-11.5887
▁haiku	-11.5894
musa	-11.5899
jani	-11.59
▁msingi	-11.59
▁doings	-11.5921
mlipa	-11.5922
wekwa	-11.5922
▁listening	-11.5926
▁tukato	-11.5936
▁becometh	-11.5941
acted	-11.5952
▁rejecting	-11.5962
▁jit	-11.5966
msikiliza	-11.5972
▁carri	-11.5973
▁lands	-11.5974
▁wakikuji	-11.5976
aning	-11.5995
atwa	-11.6
▁watche	-11.6007
msujudia	-11.6009
▁wataku	-11.6011
▁decline	-11.6014
▁comrade	-11.6015
▁bosom	-11.6016
▁stage	-11.6017
▁fain	-11.6024
▁usifuat	-11.6038
▁consent	-11.6042
▁vie	-11.6045
usia	-11.6048
▁modest	-11.605
▁perverse	-11.6051
▁illustrious	-11.6052
▁monstrous	-11.6052
▁perception	-11.6052
▁retaliate	-11.6052
▁retaliation	-11.6052
▁yaakub	-11.6052
▁detain	-11.6052
▁elite	-11.6052
▁properties	-11.6052
▁lewdness	-11.6052
▁branches	-11.6052
▁entertainment	-11.6052
▁ashes	-11.6052
▁information	-11.6053
▁commerce	-11.6054
▁enlightening	-11.6054
▁mischiefmakers	-11.6054
▁alllaudable	-11.6055
uickly	-11.6055
▁definite	-11.6055
▁fairness	-11.6056
▁carpets	-11.6059
▁purchased	-11.6059
▁intendeth	-11.6063
▁pull	-11.6064
▁ran	-11.6066
kopesha	-11.6067
▁acceptance	-11.607
▁sikutak	-11.6074
▁pain	-11.6076
▁stretched	-11.6078
▁exceeded	-11.6083
wende	-11.6086
▁revived	-11.6088
▁humwach	-11.6088
▁nyenyekea	-11.6096
▁utaka	-11.6114
▁repeats	-11.6118
wendea	-11.6123
fully	-11.6126
▁wakaingi	-11.6133
▁wh	-11.6136
▁rouse	-11.6139
▁plant	-11.614
▁got	-11.615
bebesh	-11.6177
▁kufanyi	-11.6189
takiwa	-11.619
most	-11.6194
pya	-11.6197
▁fasi	-11.6199
▁nimeku	-11.62
simshirikishe	-11.6205
▁grains	-11.6205
▁saul	-11.6206
▁blinded	-11.6207
▁ilyas	-11.6207
ually	-11.6216
singizia	-11.6221
ikhofu	-11.6224
il	-11.6225
▁uhas	-11.6226
▁wataju	-11.6227
scribing	-11.6234
▁periods	-11.6267
▁pardons	-11.6273
▁satisf	-11.6274
ah	-11.6281
▁solicit	-11.6285
▁kutii	-11.6286
▁prohibit	-11.6315
lea	-11.6316
ndi	-11.6316
▁object	-11.6321
▁conversation	-11.6324
▁salutation	-11.6326
▁ocean	-11.6326
▁amend	-11.6327
▁wanawafany	-11.6329
▁difference	-11.633
▁bind	-11.6331
mwogopi	-11.634
▁ametu	-11.6341
▁fre	-11.6343
▁detest	-11.635
▁hang	-11.6351
▁swerve	-11.6354
▁hypocritical	-11.6358
▁thick	-11.6358
▁affect	-11.6361
▁sovereign	-11.6362
▁alhamdu	-11.6362
▁apprehend	-11.6362
▁beautif	-11.6362
▁dispensation	-11.6362
▁indecent	-11.6362
▁ruling	-11.6362
▁unclean	-11.6362
▁horn	-11.6362
▁tarry	-11.6362
▁brass	-11.6362
simply	-11.6362
▁referred	-11.6362
▁population	-11.6362
uitably	-11.6363
▁warns	-11.6363
▁prosperous	-11.6363
▁welldoers	-11.6364
▁defied	-11.6364
▁outside	-11.6365
▁attainment	-11.6366
▁western	-11.6366
uently	-11.6366
▁contrived	-11.6367
▁beheld	-11.6367
les	-11.6368
▁suitable	-11.637
▁shackles	-11.6371
▁cold	-11.6375
▁foul	-11.6375
▁debtor	-11.6377
▁seduced	-11.6379
▁dawud	-11.638
▁scoffed	-11.6381
▁rushing	-11.6382
▁members	-11.6382
▁foundations	-11.6387
▁breach	-11.6389
▁chests	-11.6394
▁linap	-11.6397
kuta	-11.641
▁pig	-11.6413
sukum	-11.6418
▁mkito	-11.6422
▁itawa	-11.6429
▁yaamini	-11.6433
▁wave	-11.6434
▁navyo	-11.6439
▁ngu	-11.6449
▁cups	-11.6449
▁wapigeni	-11.645
▁numbered	-11.6467
▁akatu	-11.6473
pesi	-11.649
kiwapa	-11.6495
ufikia	-11.651
abuduni	-11.6511
hudhuria	-11.6517
▁smit	-11.6517
soma	-11.6533
chinja	-11.6535
▁wanazi	-11.6541
▁wamefuat	-11.6541
tosheleza	-11.6545
▁ameji	-11.6558
▁thence	-11.6565
▁profits	-11.6574
ukao	-11.6579
semwa	-11.6581
zeni	-11.6584
laha	-11.6594
ttered	-11.6605
oka	-11.6611
▁courses	-11.6616
▁hoard	-11.6616
▁receives	-11.662
▁colour	-11.662
▁reje	-11.6624
pambazuk	-11.6627
chamngu	-11.6627
▁asks	-11.6632
into	-11.6635
▁merit	-11.6635
afuta	-11.6635
▁root	-11.6636
jificha	-11.6637
▁deception	-11.6642
▁beggar	-11.6646
▁bak	-11.6646
▁stream	-11.6647
▁haitawafik	-11.6647
▁relationship	-11.6649
tawatambu	-11.6656
▁access	-11.6658
▁ban	-11.6659
▁atakavyo	-11.6661
jaz	-11.6663
ests	-11.6664
▁intention	-11.6664
▁orbit	-11.6667
▁kumb	-11.6667
▁study	-11.6668
▁affirm	-11.6669
▁glorifie	-11.6674
pigane	-11.6676
▁honest	-11.6679
▁warrant	-11.6679
▁glitter	-11.6682
▁adoration	-11.6682
▁asylum	-11.6682
▁indecencies	-11.6682
▁publish	-11.6682
▁remnant	-11.6682
▁sijjin	-11.6682
▁collar	-11.6682
▁destiny	-11.6682
▁scum	-11.6682
▁immorality	-11.6682
▁humanity	-11.6685
▁dignity	-11.6686
▁zechariah	-11.6686
▁hoping	-11.6686
▁feeble	-11.6686
ians	-11.6686
▁wholesome	-11.6687
▁pillars	-11.6687
▁pole	-11.6688
ishwa	-11.6689
concerned	-11.6692
▁kindled	-11.6694
ajarah	-11.6695
▁advised	-11.6698
▁opposed	-11.67
▁privately	-11.67
▁vig	-11.6702
▁ridiculed	-11.6705
▁scrolls	-11.6705
▁sooner	-11.6706
▁girls	-11.671
▁afar	-11.6711
naamrisha	-11.6712
▁wataya	-11.6712
teka	-11.6719
▁fairly	-11.6721
▁subtle	-11.6721
▁sooth	-11.6721
refu	-11.6725
▁earnings	-11.6726
▁gushing	-11.6727
▁glances	-11.6728
▁awaiting	-11.6729
angalie	-11.6746
▁uses	-11.675
▁hues	-11.6751
linen	-11.6765
▁hamw	-11.6767
▁mko	-11.6768
▁wanakata	-11.6771
▁wasted	-11.6771
▁tunakuo	-11.6774
ally	-11.678
▁forms	-11.6786
▁grip	-11.6787
▁decides	-11.6788
▁mtung	-11.6791
do	-11.6808
▁sha	-11.6818
wajaribu	-11.6818
▁beds	-11.6827
tatoka	-11.6829
▁fahamu	-11.6833
▁hawaji	-11.6839
kusaidieni	-11.6841
pima	-11.6843
mwambie	-11.6843
badili	-11.6846
▁tazam	-11.6848
▁hamfahamu	-11.6848
ja	-11.6849
▁lame	-11.6851
▁konde	-11.6855
kukhitalifiana	-11.6859
timizi	-11.6861
▁eats	-11.6872
▁kaaba	-11.6873
ogopi	-11.6875
▁mercifully	-11.6886
▁kuchinj	-11.689
sihuzunike	-11.689
▁covenanted	-11.6892
▁anam	-11.6897
itoke	-11.6903
pendapo	-11.6905
▁kunywe	-11.6908
kuomba	-11.6911
takurudish	-11.6912
ils	-11.6924
▁zinap	-11.6937
▁unawares	-11.6939
msifu	-11.6941
epushe	-11.6944
▁impress	-11.6945
▁kumu	-11.6948
kunusuruni	-11.695
▁rehears	-11.6956
ivunj	-11.6963
▁pervert	-11.6965
▁usaha	-11.6965
kuzuie	-11.6974
▁rule	-11.6976
▁stratagem	-11.6976
▁fellow	-11.6977
▁crowd	-11.6981
▁shiriki	-11.6984
tuliza	-11.6986
▁maja	-11.699
▁hauku	-11.7
jabari	-11.7001
ghufiria	-11.7002
fupa	-11.7006
▁enlarge	-11.7007
▁wakarudi	-11.7011
▁delude	-11.7012
dhibiti	-11.7012
ururi	-11.7012
▁refer	-11.7012
▁majahazi	-11.7012
▁malisho	-11.7012
▁tukimwon	-11.7012
mshirikishi	-11.7012
▁adhuhuri	-11.7012
▁almasjid	-11.7012
▁approval	-11.7012
▁arubaini	-11.7012
▁capture	-11.7012
▁danger	-11.7012
▁dowries	-11.7012
▁gratitude	-11.7012
▁jana	-11.7012
▁khafifu	-11.7012
▁kusifiwa	-11.7012
▁makumbusho	-11.7012
▁nywele	-11.7012
▁peperushwa	-11.7012
▁serving	-11.7012
▁spermdrop	-11.7012
▁trading	-11.7012
▁tremble	-11.7012
▁unaafiki	-11.7012
▁upumbavu	-11.7012
▁wanazuoni	-11.7012
▁wapumbavu	-11.7012
▁derive	-11.7012
▁mustard	-11.7012
▁vumbi	-11.7012
▁mtikiso	-11.7013
▁shore	-11.7013
▁kisogo	-11.7013
▁mazungumzo	-11.7013
▁plague	-11.7013
▁kuonya	-11.7013
▁matabaka	-11.7013
▁amemlaani	-11.7013
▁baragumu	-11.7013
fisidi	-11.7013
dharauliwa	-11.7013
▁prone	-11.7013
vunjifu	-11.7013
▁upole	-11.7013
▁exemption	-11.7013
kabiliana	-11.7013
▁precedent	-11.7013
atope	-11.7013
fitini	-11.7013
himizi	-11.7013
▁wasiki	-11.7013
▁vichuma	-11.7013
▁pursuit	-11.7013
▁country	-11.7014
▁jozi	-11.7014
▁beginning	-11.7014
▁penu	-11.7014
▁abounding	-11.7014
▁failure	-11.7014
▁kukumbusha	-11.7014
dhiri	-11.7014
▁zuliwa	-11.7014
▁kipawa	-11.7015
▁tumtakaye	-11.7015
▁wakiyaabudu	-11.7015
▁tandiko	-11.7015
akano	-11.7015
▁infinite	-11.7015
▁kujitakasa	-11.7015
▁amekuumbieni	-11.7016
▁enable	-11.7016
▁kuniuwa	-11.7016
▁kalamu	-11.7016
▁marefu	-11.7016
▁dissension	-11.7016
▁hole	-11.7017
▁machofu	-11.7017
▁virgins	-11.7017
▁constrained	-11.7017
▁kumshinda	-11.7018
▁matajiri	-11.7018
▁hawalingani	-11.7018
▁mpango	-11.7018
▁plight	-11.7018
▁elevated	-11.7018
▁hifadhiwa	-11.7019
tikisika	-11.7019
▁muamu	-11.7021
▁penitently	-11.7021
▁watai	-11.7022
▁majike	-11.7022
▁atakumbuka	-11.7022
liwaza	-11.7022
▁watashinda	-11.7023
▁atakulete	-11.7023
▁hawaachi	-11.7024
▁mbuzi	-11.7024
▁bite	-11.7025
▁tutampa	-11.7025
▁mnashuhudia	-11.7025
▁kukudhuruni	-11.7025
▁watarejea	-11.7028
▁kiume	-11.703
▁mzima	-11.7033
▁swiftly	-11.7035
▁kilikuwa	-11.7036
▁viji	-11.7036
▁hamto	-11.7037
▁kuendelea	-11.7038
▁supposed	-11.7038
nongonezana	-11.7038
▁kuzipi	-11.7039
▁waongofu	-11.704
▁wakarejea	-11.7041
anganyika	-11.7041
▁tumekuja	-11.7042
▁wing	-11.7042
▁anazi	-11.7044
zungumz	-11.7046
▁imech	-11.7047
nyanyuli	-11.7049
▁tower	-11.705
keni	-11.705
▁hishimiwa	-11.705
▁exceeding	-11.7051
▁manjano	-11.7051
▁kod	-11.7051
▁roofs	-11.7053
eza	-11.7054
▁wasiwe	-11.7055
amoja	-11.7055
▁mashakani	-11.7056
▁kusibuni	-11.7056
▁kuchwa	-11.7057
wingu	-11.7058
▁kubadilish	-11.706
kamwe	-11.7062
▁hajawa	-11.7065
▁tutawapa	-11.7068
▁kukulete	-11.7068
▁kubakia	-11.7068
▁ropes	-11.7068
▁changanyik	-11.7069
▁ameizua	-11.707
▁hawakutu	-11.707
▁amekuteu	-11.707
▁wronging	-11.7074
▁atamfu	-11.7074
▁watoke	-11.7075
▁deserves	-11.7076
▁tuache	-11.7076
▁toil	-11.7076
▁wamefurahi	-11.7077
zulia	-11.7077
▁wakadhani	-11.7081
▁hamum	-11.7082
▁mkusany	-11.7082
▁atake	-11.7086
▁potoka	-11.709
sali	-11.709
▁kupendeza	-11.709
▁uttered	-11.7094
▁tuya	-11.7099
uzua	-11.7099
▁kaka	-11.7102
▁wazuri	-11.7106
▁maker	-11.7107
▁khasarani	-11.7107
▁ants	-11.7107
▁hiding	-11.7109
▁kuungu	-11.7112
▁kump	-11.7115
▁sp	-11.7121
rendered	-11.7122
▁mwende	-11.7123
▁unle	-11.7124
safiri	-11.7125
imia	-11.7127
▁adhibiwa	-11.713
▁kuepu	-11.7134
▁ul	-11.7137
▁wakazidi	-11.7144
amkia	-11.7146
▁wasini	-11.7146
ano	-11.7147
▁silimu	-11.7148
▁ink	-11.7148
▁zifanya	-11.7149
▁arrive	-11.715
zindu	-11.715
awazidishia	-11.715
▁stareheni	-11.7151
wakilish	-11.7154
ati	-11.716
▁sat	-11.716
▁safiri	-11.7166
▁subirini	-11.7169
▁twist	-11.7176
▁msipo	-11.7178
▁prevents	-11.7178
▁bidhaa	-11.7182
▁nadhari	-11.7182
▁waione	-11.7183
▁kando	-11.7183
▁nitai	-11.719
▁ukini	-11.7193
rightly	-11.7194
oza	-11.7194
thibitikia	-11.7195
▁kuole	-11.7195
mche	-11.7197
ufutie	-11.7201
▁akamuuwa	-11.7202
▁wacha	-11.7203
simbuli	-11.7207
▁tubia	-11.7209
▁tusamehe	-11.7209
▁teremka	-11.721
▁maasi	-11.7211
▁nitakw	-11.7213
▁kufunz	-11.7214
▁milimani	-11.7214
▁zidi	-11.7219
▁punda	-11.722
▁mlangoni	-11.722
▁vy	-11.7221
▁wakili	-11.7224
mbia	-11.7234
gambo	-11.7238
▁yatapo	-11.724
▁wenzake	-11.725
▁kipambanu	-11.7255
funguli	-11.726
▁migrate	-11.7264
▁kuchuku	-11.7266
▁tumewaumb	-11.7268
tuletee	-11.7271
▁nisamehe	-11.7276
▁warejee	-11.7276
wazidishi	-11.7281
▁disbelieveth	-11.7285
▁watakata	-11.7285
▁imekuwa	-11.729
waokoa	-11.7291
kuhadharish	-11.7295
▁ruins	-11.7299
king	-11.7301
▁kuthibiti	-11.7304
chungu	-11.731
▁mkuta	-11.731
▁mkidhihirish	-11.7311
▁yatamani	-11.7315
▁wanaamini	-11.7316
▁instruction	-11.7319
▁tiding	-11.7319
takusaidieni	-11.7321
▁kiwa	-11.7321
ura	-11.7321
▁wabaya	-11.7323
▁faction	-11.7325
▁niumba	-11.7325
▁tupeni	-11.7337
▁excess	-11.7353
jibrael	-11.7354
▁arraigned	-11.7354
▁asleep	-11.7354
▁bottom	-11.7354
▁caught	-11.7354
▁constancy	-11.7354
▁copper	-11.7354
▁heavily	-11.7354
▁homage	-11.7354
▁inviolable	-11.7354
▁locusts	-11.7354
▁maintenance	-11.7354
▁fancy	-11.7354
pigie	-11.7354
▁elias	-11.7354
▁occurred	-11.7354
▁calm	-11.7354
▁enlightenment	-11.7354
▁inevitably	-11.7354
▁insane	-11.7354
▁anaijua	-11.7355
▁compulsion	-11.7355
itisho	-11.7355
▁mwitu	-11.7355
▁mumshukuru	-11.7355
▁twinkl	-11.7355
kaazi	-11.7355
▁terrified	-11.7355
▁ages	-11.7356
ingi	-11.7356
▁nje	-11.7357
▁nazarenes	-11.7358
▁tender	-11.7358
▁tujia	-11.7358
▁luminous	-11.7359
▁cushions	-11.7359
▁fulfilment	-11.736
▁banished	-11.736
▁overwhelming	-11.7361
▁gradually	-11.7361
tusamehe	-11.7361
▁swerved	-11.7363
▁weaker	-11.7364
▁tukawaangamiza	-11.7365
▁finest	-11.7366
▁hawakumbuki	-11.7367
▁harder	-11.7367
endesh	-11.7369
▁goodwill	-11.737
nakula	-11.7372
▁mshirikina	-11.7373
▁issued	-11.7376
▁overthrown	-11.7379
▁previously	-11.7381
kusanyika	-11.7382
▁throats	-11.7385
chukueni	-11.7387
▁ziki	-11.7387
▁moved	-11.7388
salimika	-11.7388
▁befalleth	-11.7388
▁waachilieni	-11.7389
▁analo	-11.7391
yazua	-11.7403
dhoofish	-11.7405
▁huge	-11.7406
kupunguzi	-11.7408
▁claimed	-11.7408
▁ansar	-11.7409
▁atone	-11.7411
▁kuhukumu	-11.7418
▁showing	-11.7418
kutimizieni	-11.7425
▁muomba	-11.7425
▁kuwashinda	-11.743
▁wealthy	-11.7431
especially	-11.7437
mejidhulumu	-11.7438
mfar	-11.744
▁vyo	-11.7441
▁wauw	-11.7449
▁nurse	-11.7449
lipiza	-11.7462
▁kupigi	-11.7464
▁hawai	-11.7465
ongoka	-11.7466
▁shikaman	-11.7491
achache	-11.7502
mpendi	-11.7505
wabainiki	-11.7506
uish	-11.7508
▁kushoto	-11.7511
pite	-11.7515
ipamba	-11.7518
▁tumeteremsh	-11.7526
c	-11.7527
ruhusu	-11.7529
▁wamelala	-11.753
▁ubavu	-11.753
▁talut	-11.753
▁wamchao	-11.753
▁nne	-11.7532
▁watatu	-11.7533
▁vilima	-11.7533
▁tunawajua	-11.7535
▁kumsujudia	-11.7542
kari	-11.755
ateni	-11.755
true	-11.7552
▁usikhofu	-11.7554
▁wabashiri	-11.7554
▁tutak	-11.7559
▁nafu	-11.7559
▁wameni	-11.7559
riwa	-11.756
▁kuking	-11.756
▁jitakasa	-11.7561
ship	-11.7564
▁mas	-11.7569
mail	-11.7577
▁waamrisha	-11.7581
▁tamani	-11.7583
▁kuko	-11.7587
▁penetrate	-11.7598
▁converse	-11.7602
▁tubba	-11.7603
▁yatoa	-11.7605
▁wapata	-11.7609
▁sustain	-11.7609
▁sahau	-11.7611
▁kifung	-11.7612
▁wafungwa	-11.762
▁wi	-11.7624
▁genuine	-11.763
▁yakataa	-11.7637
wafanyie	-11.7645
kamata	-11.7647
▁akiku	-11.765
▁nane	-11.7654
ungi	-11.7654
awafikia	-11.7656
▁dogo	-11.7658
▁route	-11.7672
▁prodigal	-11.7672
▁sustainer	-11.7673
▁occasion	-11.7673
▁datepalm	-11.7673
▁possession	-11.7677
▁traveller	-11.7677
aye	-11.7685
▁obstruct	-11.7685
▁ende	-11.7685
kwa	-11.7687
▁slumber	-11.7694
▁morn	-11.7696
zima	-11.7697
▁chest	-11.7699
▁merge	-11.7701
▁scream	-11.7707
▁court	-11.7708
▁beloved	-11.7708
▁crawl	-11.7708
▁expiate	-11.7708
▁illustrate	-11.7708
▁imminent	-11.7708
▁kinsfolk	-11.7708
▁munificent	-11.7708
▁proclamation	-11.7708
▁register	-11.7708
▁soothsayer	-11.7708
▁thieves	-11.7708
▁treachery	-11.7708
▁waadilifu	-11.7708
▁remote	-11.7708
uraish	-11.7708
▁tribute	-11.7708
▁tread	-11.7708
▁yore	-11.7709
▁negligent	-11.7709
▁utmost	-11.7709
▁defy	-11.7709
▁foster	-11.7709
▁homecoming	-11.7709
▁loins	-11.7709
▁outstretched	-11.7709
▁predecessors	-11.7709
edition	-11.771
▁safishwa	-11.771
▁allstrong	-11.771
▁inwardly	-11.7711
▁arrows	-11.7713
▁unleash	-11.7713
uitous	-11.7714
kirimu	-11.7714
▁dedicated	-11.7714
▁testified	-11.7715
▁fifty	-11.7716
▁vanished	-11.7718
▁violently	-11.7719
▁exactly	-11.772
▁divers	-11.7721
▁begone	-11.7722
▁waokoa	-11.7726
▁ignored	-11.7727
▁samiri	-11.773
▁precautions	-11.7731
▁faint	-11.7732
▁liki	-11.7733
treated	-11.7733
▁itafika	-11.7734
▁whispering	-11.7735
saa	-11.7737
ificha	-11.7737
mshuhudish	-11.7737
▁travellers	-11.7744
▁endured	-11.7745
▁breath	-11.7746
▁apa	-11.7746
mjaali	-11.775
▁msiu	-11.7752
▁tutawaach	-11.7754
▁wadhuru	-11.7754
▁villages	-11.7767
▁accounts	-11.7767
▁wamejidhulumu	-11.777
▁kuteremshi	-11.7774
▁blot	-11.7775
▁ayatakayo	-11.7779
tarejeshwa	-11.7781
awalinda	-11.7784
toke	-11.7787
breaking	-11.7795
▁prior	-11.7795
iwafiki	-11.7797
▁opposes	-11.7802
waonjesh	-11.7812
▁chinj	-11.7814
amwongoa	-11.7823
▁fie	-11.7827
▁forego	-11.7829
▁wasome	-11.7831
waamrisha	-11.7837
actually	-11.7841
▁mawi	-11.7842
▁mwogop	-11.7846
▁woeful	-11.7846
uarrel	-11.7847
▁endu	-11.7853
▁hatak	-11.7863
▁wakil	-11.7864
▁snatche	-11.7877
kata	-11.7877
afara	-11.7888
▁umra	-11.789
waogope	-11.789
fafanu	-11.789
▁azar	-11.789
▁dare	-11.7895
▁ziada	-11.7897
▁almsgiv	-11.7898
▁hawaiamini	-11.7899
▁isiwe	-11.7911
▁jew	-11.7911
▁hadhari	-11.7915
▁ale	-11.7919
something	-11.7921
before	-11.7921
anything	-11.7921
kukusany	-11.7929
tulia	-11.7932
takacho	-11.7933
▁iwafik	-11.7937
hanga	-11.7939
▁swearing	-11.7946
viona	-11.7953
▁va	-11.7954
▁kupanga	-11.7955
lindeni	-11.7966
▁bisha	-11.7968
▁ended	-11.7971
▁wanaona	-11.7975
▁zingatia	-11.7975
tengenezee	-11.7977
babu	-11.7979
teremki	-11.7982
▁lodge	-11.7988
▁unfaith	-11.799
▁top	-11.7995
onga	-11.7999
▁evenings	-11.8003
ridhika	-11.8003
▁labor	-11.8005
▁design	-11.8027
▁kumtaka	-11.803
▁discharge	-11.8031
▁relief	-11.8035
▁smot	-11.8036
shuhudie	-11.8036
▁decrease	-11.8039
▁rod	-11.804
▁christian	-11.804
▁mouth	-11.804
▁reckoner	-11.8041
▁suppress	-11.8044
katae	-11.8046
▁taha	-11.8047
taona	-11.8047
kuhifadhi	-11.8052
wafanya	-11.8058
uander	-11.8061
▁tokea	-11.8065
▁disagree	-11.8068
▁mass	-11.8068
uick	-11.8069
▁kufufu	-11.8072
▁alphabet	-11.8075
▁apprehensive	-11.8075
▁benevolent	-11.8075
▁crystal	-11.8075
▁daybreak	-11.8075
▁exposition	-11.8075
▁mheshimiwa	-11.8075
▁satisfaction	-11.8075
▁subsistence	-11.8075
▁yesterday	-11.8075
▁kneel	-11.8075
▁zawadi	-11.8075
▁curtain	-11.8075
▁dhulkifl	-11.8075
▁sharp	-11.8075
▁raiment	-11.8075
▁stingy	-11.8076
▁shaba	-11.8076
▁triumphant	-11.8076
▁expanse	-11.8076
▁associategods	-11.8076
▁sunset	-11.8076
▁appeal	-11.8076
▁resources	-11.8076
▁uprooted	-11.8078
▁awesome	-11.8078
zamisha	-11.8079
▁thereunto	-11.808
▁riding	-11.8081
▁nearby	-11.8082
▁vineyards	-11.8083
▁disagreed	-11.8083
▁beguiled	-11.8085
▁belly	-11.8085
▁smaller	-11.8086
▁dowry	-11.8088
▁allembracing	-11.8089
▁bestower	-11.8089
steeped	-11.809
kuonyeshe	-11.8091
▁cries	-11.8091
▁sunnah	-11.8092
▁tetemek	-11.8093
▁recognised	-11.8093
▁movement	-11.8095
usikia	-11.8096
mushrikun	-11.8096
▁wamepig	-11.8098
▁umrah	-11.8098
▁extended	-11.8099
shinde	-11.8104
▁augur	-11.8104
▁abase	-11.8107
▁ameya	-11.811
▁mixture	-11.811
▁kushuhudia	-11.811
▁becoming	-11.8114
▁yaabudu	-11.8114
▁kutole	-11.8118
▁bur	-11.812
▁kuwarehemu	-11.8123
▁rejoiced	-11.8129
▁haarun	-11.8133
▁wam	-11.8136
hi	-11.8142
▁createth	-11.8153
▁extends	-11.8155
uwawa	-11.8156
▁kuzuili	-11.8159
▁purchase	-11.8159
▁chache	-11.8166
somewa	-11.8176
▁abu	-11.8184
kufunulia	-11.8184
▁obeying	-11.8185
while	-11.8186
▁atakupen	-11.8186
fai	-11.819
▁ally	-11.8192
▁shi	-11.8195
us	-11.8203
▁kusi	-11.8209
▁continuous	-11.8213
▁atawalet	-11.8221
hangaik	-11.8222
ndishi	-11.8222
▁nifuateni	-11.8232
pepes	-11.8236
▁positions	-11.8237
▁hatui	-11.8238
confirmed	-11.8246
▁usimtii	-11.8267
▁ataniongoa	-11.8268
▁appears	-11.8275
shirikiana	-11.8291
kificha	-11.8292
naki	-11.8297
▁waf	-11.83
called	-11.8302
miminika	-11.8302
now	-11.8303
▁kimbili	-11.8307
▁aim	-11.8308
umia	-11.8308
▁base	-11.8322
harimishi	-11.833
urithi	-11.8332
wajui	-11.8334
▁masha	-11.8335
rink	-11.8342
▁beget	-11.8343
naweza	-11.8351
▁kuwaona	-11.8353
tresses	-11.837
▁hawakuka	-11.8375
nya	-11.8375
ought	-11.8379
▁extinguish	-11.838
andika	-11.8382
▁admitt	-11.8384
▁shindan	-11.8385
itakase	-11.8394
tufikia	-11.8411
oshi	-11.8415
▁mirage	-11.8416
kiikanusha	-11.842
▁structure	-11.842
▁fountain	-11.8421
▁palmtree	-11.8421
wapati	-11.8437
▁uzi	-11.8437
▁covet	-11.8439
▁aliha	-11.8443
▁soft	-11.8447
ira	-11.8449
silimu	-11.8449
▁contentious	-11.8456
▁intent	-11.8456
▁treasuri	-11.8456
▁engulf	-11.8456
▁inclining	-11.8456
▁irresistible	-11.8456
▁samood	-11.8456
▁unthankful	-11.8456
▁spake	-11.8456
▁stature	-11.8456
▁bidden	-11.8456
▁suckling	-11.8456
▁forbidding	-11.8456
▁ayn	-11.8457
▁bible	-11.8457
▁fortified	-11.8457
▁disappointed	-11.8458
▁odd	-11.8458
▁blissful	-11.8458
▁roaring	-11.8458
▁blackened	-11.8458
nye	-11.8458
▁winners	-11.8459
▁walimkanusha	-11.8459
▁exempt	-11.8461
▁piercing	-11.8461
▁moderate	-11.8461
▁fee	-11.8462
changany	-11.8462
▁herbs	-11.8463
▁picked	-11.8463
▁firmness	-11.8463
▁haito	-11.8464
▁fit	-11.8464
timia	-11.8465
▁anashuhudia	-11.8466
▁mnam	-11.8466
▁indulged	-11.8466
▁burnt	-11.8467
▁tutawaon	-11.8467
▁assumed	-11.8468
▁acknowledged	-11.8469
▁grown	-11.8469
▁reckoned	-11.8473
▁deserved	-11.8476
▁tur	-11.8478
praising	-11.8479
kazi	-11.8479
▁eighth	-11.8481
▁adhere	-11.8482
zidish	-11.8485
▁obtained	-11.8489
exemplary	-11.8491
▁proudly	-11.8498
mtende	-11.8506
▁clothes	-11.8506
▁hawawa	-11.8508
▁sleeping	-11.8516
▁mission	-11.8517
▁pages	-11.8517
ikisha	-11.8518
▁incite	-11.8518
▁lag	-11.8523
▁atakuondo	-11.8528
▁hated	-11.853
mbua	-11.8531
▁playing	-11.8532
▁contains	-11.8534
▁bonds	-11.8538
ngo	-11.8547
hoji	-11.855
▁drawing	-11.8552
▁kuita	-11.8554
▁huzi	-11.8556
▁fare	-11.8556
uestioning	-11.8556
waumbi	-11.8558
▁patrons	-11.8559
▁kwazo	-11.8575
▁thank	-11.8582
▁answers	-11.8582
▁counsels	-11.8583
kunazi	-11.8588
mpati	-11.859
ifuate	-11.8611
▁huwaongo	-11.8615
napanda	-11.8621
▁mmeharimish	-11.8621
▁ti	-11.8624
▁masih	-11.8631
tasailiwa	-11.8634
▁crying	-11.8635
▁nyak	-11.8651
▁jibril	-11.8652
▁obscure	-11.8655
▁wanangu	-11.8663
ndo	-11.8671
wafanyi	-11.8681
kujia	-11.8713
▁meed	-11.8715
▁express	-11.8722
awalipa	-11.8723
▁hazikuwa	-11.8726
▁mornings	-11.8734
wafukuze	-11.8738
llaware	-11.8739
toki	-11.8743
▁seeth	-11.8744
▁tumewafany	-11.875
▁im	-11.876
yaandika	-11.8766
▁religions	-11.8795
iumba	-11.8801
▁excellence	-11.8812
▁throat	-11.8817
▁summoner	-11.8817
▁daughter	-11.8817
▁relation	-11.8818
▁suspicion	-11.8822
▁vanish	-11.8822
▁utawala	-11.8826
jiona	-11.883
▁ardhini	-11.8832
▁pelek	-11.8838
ruzukiw	-11.8839
▁defraud	-11.884
▁asiku	-11.884
▁annoy	-11.8841
▁testifie	-11.8845
▁acknowledge	-11.8846
▁pleasures	-11.8847
▁reprieve	-11.885
▁filth	-11.885
▁tulia	-11.8851
▁datestone	-11.8852
▁delicious	-11.8852
▁disorder	-11.8852
▁dominant	-11.8852
▁impure	-11.8852
▁penitence	-11.8852
▁behove	-11.8852
▁degradation	-11.8852
▁folly	-11.8852
▁observant	-11.8852
▁ayyub	-11.8853
▁weariness	-11.8853
▁horror	-11.8853
▁cleaving	-11.8853
▁deviation	-11.8853
▁hatuja	-11.8853
▁poordue	-11.8853
▁indulge	-11.8853
▁recital	-11.8854
racing	-11.8854
▁scarce	-11.8854
▁advocate	-11.8854
▁listeth	-11.8854
▁salwa	-11.8854
▁authorit	-11.8854
▁legends	-11.8855
▁downcast	-11.8856
▁carnal	-11.8857
▁planning	-11.8857
uality	-11.8857
▁drinkers	-11.8858
▁soften	-11.8858
▁sparks	-11.8859
sujudu	-11.886
▁persecuted	-11.886
kika	-11.8862
▁shoot	-11.8864
▁fruitless	-11.8864
unguliwa	-11.8865
▁lips	-11.8866
▁hoarded	-11.8866
▁tulii	-11.8867
▁confounded	-11.8868
▁sheba	-11.8868
▁shave	-11.8868
▁tied	-11.8869
▁colors	-11.887
vuka	-11.8872
▁wamem	-11.8873
tano	-11.8874
▁disliked	-11.8881
▁mle	-11.8885
▁wangoje	-11.8885
▁weighed	-11.8887
▁usage	-11.889
▁mkisome	-11.8893
▁easter	-11.8894
mpenda	-11.89
▁comforted	-11.8904
▁regretful	-11.8918
▁uphold	-11.892
ated	-11.8925
ek	-11.8926
▁tan	-11.8931
▁scribes	-11.8934
▁whispers	-11.8934
ukuta	-11.8936
▁commemorate	-11.8937
gua	-11.8938
▁severely	-11.8943
▁statements	-11.8948
elekez	-11.8959
▁boys	-11.8971
▁lowly	-11.8982
▁disobeying	-11.8982
teth	-11.8986
vowed	-11.8997
ative	-11.9001
tageuka	-11.9007
umuamini	-11.9032
watumi	-11.9033
▁unawaon	-11.9038
▁wameji	-11.9043
▁akaka	-11.9051
▁umasikini	-11.9057
mwombe	-11.9062
▁arafa	-11.9064
▁attach	-11.9064
wafadhili	-11.9089
ghufirie	-11.9096
msingizia	-11.9097
▁ny	-11.9108
final	-11.9109
▁tuliwatum	-11.911
when	-11.911
▁tambu	-11.9122
▁stead	-11.9128
ingize	-11.9132
uelekez	-11.9133
▁talks	-11.9138
kufikiri	-11.9146
▁mk	-11.9152
pitiwa	-11.916
ten	-11.9161
tukufu	-11.9174
yaondoa	-11.9185
▁trespasse	-11.9187
▁sights	-11.9197
▁amevi	-11.9199
▁hui	-11.9203
letee	-11.9205
due	-11.9207
sometimes	-11.9207
▁cure	-11.9211
▁view	-11.9229
▁assumption	-11.9229
▁dower	-11.9229
▁hypocrite	-11.923
▁ornament	-11.923
mwone	-11.9242
▁invocation	-11.9249
▁prolong	-11.9254
▁resist	-11.9255
▁revile	-11.9256
▁crumble	-11.9257
▁persecute	-11.9258
▁deprive	-11.9258
▁construct	-11.9259
▁carve	-11.9259
▁wrangle	-11.9263
hai	-11.9265
▁original	-11.9265
▁allclement	-11.9265
▁intelligence	-11.9265
▁intoxicant	-11.9265
▁intoxication	-11.9265
▁major	-11.9265
▁providing	-11.9265
▁rancour	-11.9265
▁congregation	-11.9265
▁wrapped	-11.9265
▁reverence	-11.9265
▁seizing	-11.9265
▁intentionally	-11.9265
▁spell	-11.9265
▁nakedness	-11.9265
▁wonderful	-11.9266
▁appearance	-11.9267
▁idolatress	-11.9267
▁prey	-11.9267
uel	-11.9267
▁upset	-11.9268
▁announcement	-11.927
▁pity	-11.927
▁occupied	-11.927
▁duties	-11.927
▁tall	-11.927
▁overflowing	-11.9276
cheka	-11.9277
uished	-11.9277
▁ameumb	-11.9279
▁ranged	-11.9279
waombee	-11.9282
bainiki	-11.9284
▁insolently	-11.9285
▁properly	-11.9288
▁expounded	-11.9294
▁demanded	-11.9295
▁permits	-11.9295
▁forbear	-11.9296
▁angalieni	-11.9303
▁pre	-11.9309
▁attract	-11.9311
▁hayata	-11.9312
▁salam	-11.9312
napenda	-11.9312
▁oceans	-11.9313
uelekeze	-11.9314
▁challenge	-11.9315
▁hi	-11.9318
▁belongings	-11.9319
▁shuk	-11.9321
▁worshiper	-11.9327
▁mend	-11.933
▁eminen	-11.9339
▁atau	-11.9343
meza	-11.9346
▁feeling	-11.9349
▁atatu	-11.935
▁ataya	-11.9351
▁hut	-11.9355
fichu	-11.9361
▁yields	-11.9368
▁talking	-11.9368
▁approaching	-11.9371
▁anau	-11.9375
ape	-11.9377
▁atakuja	-11.9379
▁lipo	-11.9379
mtaka	-11.9386
▁waite	-11.9389
▁lovely	-11.9389
tul	-11.939
k	-11.939
hini	-11.939
▁waj	-11.9396
andikwa	-11.9397
▁wenda	-11.9426
▁simamish	-11.9427
▁wanga	-11.9432
▁mwambi	-11.9434
▁pu	-11.9438
yaficha	-11.9447
▁dhihiri	-11.9448
▁overcame	-11.9449
kuruzukuni	-11.9457
▁ewes	-11.9458
▁kulet	-11.946
▁faced	-11.9461
izuia	-11.9466
muusia	-11.9474
lingani	-11.9475
himize	-11.9478
▁shaitans	-11.9482
chafu	-11.9484
▁wakamkanusha	-11.9485
tawakuta	-11.9489
not	-11.9491
mpuliz	-11.9495
▁loved	-11.9499
▁compass	-11.9507
ambatish	-11.9513
▁mteremsh	-11.9525
simamisha	-11.9527
▁inge	-11.9528
▁tumewapa	-11.9529
nyama	-11.9532
▁mako	-11.9533
▁hawam	-11.9541
much	-11.9541
▁ilip	-11.9544
▁watering	-11.9546
▁ziliku	-11.9551
▁bless	-11.9556
kuondole	-11.9564
mbieni	-11.9582
kudhuruni	-11.9582
dded	-11.9586
▁vimo	-11.9589
say	-11.9593
litaka	-11.9596
▁watasalim	-11.9597
udu	-11.96
▁kuridhi	-11.9601
ishika	-11.9603
fedhehesh	-11.9603
▁akaji	-11.9608
▁funga	-11.9623
maliz	-11.9626
wapo	-11.9626
▁di	-11.963
▁hardships	-11.963
siri	-11.9633
▁humbl	-11.9634
▁consummate	-11.9636
▁willing	-11.9646
▁insult	-11.9647
kukali	-11.9652
khalifu	-11.9655
▁consort	-11.9659
▁parting	-11.966
▁foundation	-11.9664
▁wamewa	-11.9665
akini	-11.9668
▁eg	-11.967
▁devote	-11.9675
tampa	-11.9675
arnain	-11.9679
▁erect	-11.9684
▁impugn	-11.9684
▁abuse	-11.9687
▁value	-11.9688
▁furnish	-11.969
iana	-11.9691
paji	-11.9692
▁confine	-11.9692
▁humto	-11.9693
▁salt	-11.9693
▁complain	-11.9693
dhulumiwa	-11.9694
▁unatu	-11.9695
▁immoral	-11.9695
▁charities	-11.9695
▁cognisant	-11.9695
▁detriment	-11.9695
▁fortitude	-11.9695
▁kinsman	-11.9695
▁moral	-11.9695
▁morrow	-11.9695
▁puberty	-11.9695
▁recourse	-11.9695
▁report	-11.9695
▁seizure	-11.9695
▁splendid	-11.9695
▁splendour	-11.9695
▁studied	-11.9695
▁surprise	-11.9695
▁companies	-11.9695
▁contemptible	-11.9695
▁proximity	-11.9695
▁weapons	-11.9695
▁ladder	-11.9695
▁menstruation	-11.9695
▁unmindful	-11.9695
▁entrance	-11.9695
▁uppermost	-11.9695
▁levelled	-11.9695
▁wroth	-11.9696
▁thankless	-11.9696
▁crier	-11.9696
▁difficulties	-11.9696
▁assistance	-11.9696
▁hastily	-11.9696
▁blest	-11.9696
▁associators	-11.9696
▁scholars	-11.9696
▁makka	-11.9697
tangaza	-11.9697
▁miserly	-11.9698
▁annihilated	-11.9698
▁adulterer	-11.9698
▁leper	-11.9699
▁lifetime	-11.97
▁arranged	-11.9704
▁devoutly	-11.9705
▁outer	-11.9705
▁imprisoned	-11.9705
▁kitaku	-11.9706
hu	-11.9706
▁childless	-11.9706
▁deeply	-11.9707
▁plunged	-11.9707
▁regularly	-11.9709
▁deviated	-11.9709
nyoosh	-11.971
▁regions	-11.971
▁cleansed	-11.9711
▁passes	-11.9713
▁kuvi	-11.9714
▁carefully	-11.9717
▁table	-11.9719
▁surrounding	-11.972
▁ills	-11.972
▁shuhudi	-11.9722
▁bits	-11.9722
angalia	-11.9725
▁donkeys	-11.9726
▁attacked	-11.9733
▁kumwomb	-11.9735
kuku	-11.9737
▁lika	-11.9739
▁hanging	-11.9745
▁covenants	-11.9747
api	-11.975
▁sacrificed	-11.9752
▁gathers	-11.9753
▁bounteous	-11.9756
▁heights	-11.9756
pati	-11.9757
mun	-11.9757
▁shine	-11.9758
shaurian	-11.9759
fukuzwa	-11.976
mtukuze	-11.976
tahadhari	-11.976
khalifa	-11.976
kukatazeni	-11.9761
wenzenu	-11.9761
▁pens	-11.9762
adhibiwa	-11.9762
mungu	-11.9763
▁stare	-11.9763
barikiwa	-11.9769
▁mliy	-11.9777
khadaa	-11.9779
timilizi	-11.978
▁despairing	-11.978
ba	-11.9792
dhabi	-11.9793
tembee	-11.9795
▁yaburudi	-11.9797
tajwa	-11.9798
mdhani	-11.9804
saba	-11.9804
▁allege	-11.9808
▁washirikish	-11.9813
jitetea	-11.9818
▁wasinge	-11.9819
ameharimish	-11.982
tufanyi	-11.9821
rous	-11.9822
▁kulio	-11.9824
▁regrets	-11.9826
▁walls	-11.983
▁lipi	-11.9831
gombana	-11.9831
▁ibariki	-11.9832
nayakataa	-11.9835
chunga	-11.9839
litakalo	-11.9839
mejaa	-11.9845
ngara	-11.9845
shirikishe	-11.9846
my	-11.9846
▁tufan	-11.9849
khofia	-11.9855
gged	-11.9861
kapig	-11.9863
iza	-11.9865
▁wanawapend	-11.9865
▁ms	-11.9866
kuamini	-11.9868
ungwana	-11.9868
chinje	-11.987
▁waver	-11.9871
▁mrehem	-11.9874
mbuka	-11.9874
▁wakali	-11.9879
▁beat	-11.9884
wajie	-11.9895
▁muitiki	-11.9895
nongono	-11.9896
tegemewa	-11.9896
wovu	-11.9897
huzunisha	-11.9898
▁utuuzima	-11.9898
▁unge	-11.9899
mekatazwa	-11.9902
▁utatu	-11.9902
igeni	-11.9904
▁concealing	-11.9904
▁lighten	-11.9906
fisadi	-11.9907
▁mtazam	-11.9909
hab	-11.9913
tangatanga	-11.9914
yahudi	-11.9914
ikadhibisha	-11.9915
funiko	-11.9915
▁zisi	-11.9915
▁khitilaf	-11.9915
udidimiz	-11.9916
kuneemesheni	-11.9916
ashiria	-11.9916
ruhusiw	-11.9917
▁faragha	-11.9917
▁mnyanyuko	-11.9917
▁rukuu	-11.9917
dhamiria	-11.9917
fyekwa	-11.9917
kakhitalifiana	-11.9917
ondokele	-11.9917
suluhish	-11.9917
yaepuka	-11.9917
▁changarawe	-11.9917
▁gharama	-11.9917
▁jumaamosi	-11.9917
▁kiwiliwili	-11.9917
▁kumbusho	-11.9917
▁madhalili	-11.9917
▁mafungu	-11.9917
▁magoti	-11.9917
▁mahurulaini	-11.9917
▁msamaria	-11.9917
▁mtupu	-11.9917
▁mzushi	-11.9917
▁rahema	-11.9917
▁ruwaza	-11.9917
▁shughuli	-11.9917
▁sufi	-11.9917
▁ufukweni	-11.9917
▁wazushi	-11.9917
kabidhi	-11.9917
▁chumbani	-11.9917
▁ihsani	-11.9917
▁wakishindana	-11.9917
chambu	-11.9917
▁zuilika	-11.9917
fikilii	-11.9917
▁tabaka	-11.9917
▁mwetu	-11.9917
▁dawamu	-11.9917
▁mavumbi	-11.9917
▁sabiini	-11.9917
▁wanywao	-11.9917
▁karne	-11.9917
▁farikian	-11.9917
▁amewakasirikia	-11.9917
▁wanazihifadhi	-11.9917
nawiri	-11.9918
▁mbavu	-11.9918
▁uchochezi	-11.9918
twik	-11.9918
▁hamyajui	-11.9918
▁jitangulizi	-11.9918
▁jaribiwa	-11.9918
▁wanakiamini	-11.9918
▁takaswa	-11.9918
ponesha	-11.9918
kasirisha	-11.9918
gharimi	-11.9918
▁mumche	-11.9918
▁hamtadhulumiwa	-11.9918
▁zaburi	-11.9918
▁madhila	-11.9918
▁tumenyimwa	-11.9918
▁yakawazunguka	-11.9918
kithirish	-11.9918
▁hazita	-11.9918
▁dua	-11.9918
▁lazimishwa	-11.9918
▁kuzidi	-11.9918
▁machakani	-11.9918
ichi	-11.9919
choki	-11.992
▁upungufu	-11.992
▁kipaji	-11.992
▁tutashinda	-11.992
▁ukali	-11.992
▁kamatana	-11.992
▁kunikumbuka	-11.9921
▁mkidai	-11.9921
▁akaitupa	-11.9921
▁ameniongoa	-11.9921
▁kumdhukuru	-11.9921
mwondoshe	-11.9921
▁akavi	-11.9921
▁atawasamehe	-11.9922
dekez	-11.9922
▁akamwongoa	-11.9922
▁khita	-11.9922
▁kuulizana	-11.9922
▁hamli	-11.9922
pasuliwa	-11.9923
▁wanacheza	-11.9923
▁wakamchamngu	-11.9924
▁majengo	-11.9924
▁kupumzika	-11.9924
▁kuzingatia	-11.9924
▁yakiwa	-11.9924
▁uja	-11.9925
▁wanasujudu	-11.9925
▁kuwalaumu	-11.9926
▁kumchamngu	-11.9926
▁taala	-11.9926
▁wakasujudu	-11.9927
▁kuokoka	-11.9928
▁despairs	-11.9928
▁anakufisheni	-11.9928
▁wataji	-11.9928
▁uwape	-11.9929
▁ukongwe	-11.9929
▁kukuonyesh	-11.9929
ngojea	-11.993
▁kuizuia	-11.993
▁makavu	-11.9931
ra	-11.9931
▁mtafufuliwa	-11.9932
▁jengwa	-11.9932
▁mwenginewe	-11.9933
saidiana	-11.9933
▁wakiiona	-11.9933
▁msipigane	-11.9934
▁anasa	-11.9934
▁wahishimiwa	-11.9934
▁wazee	-11.9935
▁mans	-11.9935
▁kuhama	-11.9935
▁tukamu	-11.9936
▁wanangoja	-11.9937
nagog	-11.9938
▁wakiwajia	-11.9938
▁mnakataa	-11.994
▁kumshirikisha	-11.994
▁kumnusuru	-11.9942
▁hawataamini	-11.9943
▁kuyakataa	-11.9944
▁amewafadhili	-11.9944
▁atakup	-11.9944
▁kuyaon	-11.9945
▁msafiri	-11.9945
▁tuitia	-11.9945
▁wakawauwa	-11.9945
▁kuwabainishia	-11.9947
wezekan	-11.9948
▁kukushi	-11.9949
▁tukii	-11.995
mishi	-11.995
▁safina	-11.9951
gundua	-11.9952
▁tunaweza	-11.9952
▁wakiwaabudu	-11.9953
kamili	-11.9953
▁watafufuliwa	-11.9953
▁awafuti	-11.9953
shikaman	-11.9956
vizia	-11.9958
▁mkiyaficha	-11.996
epush	-11.9962
▁alikataa	-11.9963
tatolewa	-11.9963
mati	-11.9966
▁kukosa	-11.9966
▁msimami	-11.9968
▁vunjwa	-11.9968
▁haribika	-11.9969
▁wanageuka	-11.997
▁wainamish	-11.997
▁wasidhani	-11.997
▁kingine	-11.9971
▁mkamat	-11.9973
▁ikutumikieni	-11.9973
▁haruni	-11.9974
▁atawaongoa	-11.9974
▁mdhukuru	-11.9975
▁pangwa	-11.9975
▁nyi	-11.9977
iseme	-11.9977
▁kuahidi	-11.9977
vurugik	-11.9978
▁wakim	-11.998
▁mnaamini	-11.9981
▁watakacho	-11.9982
utia	-11.9983
▁haukuwa	-11.9986
▁ninawa	-11.9987
▁kushindana	-11.9989
▁inama	-11.999
▁reinforce	-11.9992
▁kitoka	-11.9993
▁tutakuto	-11.9993
waite	-11.9995
kutane	-11.9997
▁msimfanyi	-11.9999
tumikia	-11.9999
shirikina	-12.0001
▁vitakuwa	-12.0003
▁hapote	-12.0005
▁kuzipa	-12.0005
gulia	-12.0007
▁wanat	-12.0011
▁chusha	-12.0013
▁kasimama	-12.0014
▁kimo	-12.0016
▁wakusany	-12.0016
▁ifanyi	-12.0016
▁kuhuisha	-12.0017
▁wasimami	-12.0018
▁letu	-12.002
▁malizika	-12.002
▁wamepata	-12.0021
ukutakase	-12.0022
▁tutakuja	-12.0023
▁removes	-12.0025
▁kuume	-12.0026
▁watengeneze	-12.0028
▁tutai	-12.0028
▁waingize	-12.0029
ukieni	-12.0032
▁kuelekea	-12.0034
▁haim	-12.004
▁mdumu	-12.0041
▁kuch	-12.0042
▁bala	-12.0044
▁noon	-12.0048
kuhoji	-12.0049
kiwapo	-12.0049
tangazie	-12.005
▁shindwa	-12.0052
angamizi	-12.0053
▁betake	-12.0055
ulize	-12.0055
uuni	-12.0058
▁kunywea	-12.0058
saliti	-12.006
▁atakujaali	-12.0062
kuumbieni	-12.0064
▁akakuwek	-12.0065
▁muingi	-12.0065
▁kusome	-12.0066
▁mje	-12.0068
▁wapanda	-12.0068
▁kukaribish	-12.0068
ondolewa	-12.0071
▁gombana	-12.0074
▁nimekuteu	-12.0074
▁zipiti	-12.0075
alimu	-12.0075
▁jitetea	-12.0075
▁ngojea	-12.0077
▁zinakata	-12.008
choyo	-12.008
▁wanaogopa	-12.008
mpeleke	-12.0082
▁mpeleke	-12.0084
mridhisha	-12.0084
▁viga	-12.0084
acho	-12.0087
▁mavu	-12.0088
kufanye	-12.0089
gomvi	-12.0092
▁mbi	-12.0092
▁kuamrisha	-12.0098
▁simam	-12.0098
▁mpotovu	-12.0103
wasikilizish	-12.0108
▁sect	-12.0109
▁atom	-12.0109
▁tale	-12.011
▁yashike	-12.011
▁tuondole	-12.0113
▁makosani	-12.0116
▁trample	-12.0116
fuka	-12.0119
▁msingizia	-12.0119
▁guess	-12.0119
▁uwawa	-12.0119
itangulia	-12.012
mkhofu	-12.0124
▁nim	-12.0128
arun	-12.013
▁govern	-12.013
▁kuchukia	-12.0131
▁swoon	-12.0131
▁widow	-12.0133
▁condemn	-12.0134
▁imprison	-12.0134
▁dense	-12.014
▁immediate	-12.0141
▁divide	-12.0142
▁wasteful	-12.0142
kufundisheni	-12.0142
▁foreign	-12.0143
▁bigge	-12.0143
▁froward	-12.0144
▁extol	-12.0144
▁luxuri	-12.0144
▁discover	-12.0145
▁frail	-12.0145
▁misalabani	-12.0145
▁prowess	-12.0145
▁unchaste	-12.0145
▁wizard	-12.0145
uiring	-12.0145
▁elders	-12.0145
▁solid	-12.0145
▁nightfall	-12.0145
▁nasaha	-12.0145
▁twofold	-12.0145
kukaa	-12.0145
▁chieftains	-12.0146
▁bewildered	-12.0146
▁mahr	-12.0147
▁tumekufany	-12.0147
▁ascent	-12.0148
kahaba	-12.0148
▁mtasubiri	-12.0148
▁tunangoja	-12.0149
▁oven	-12.015
▁msivunj	-12.0151
▁mdanganyifu	-12.0152
kiuka	-12.0153
badilishi	-12.0153
▁kamari	-12.0154
meshindwa	-12.0154
▁wageuz	-12.0155
▁blindness	-12.0155
▁worthie	-12.0156
▁yearn	-12.0157
▁interpret	-12.0157
▁guessing	-12.0158
▁zikati	-12.0158
▁mnyonge	-12.0158
▁approved	-12.0159
▁devotees	-12.016
▁covetous	-12.016
▁vessels	-12.0161
▁achieved	-12.0161
▁mizuri	-12.0162
▁hayajui	-12.0164
▁murdered	-12.0165
▁kudai	-12.0167
▁kuanguk	-12.0168
ewe	-12.017
▁sown	-12.0173
fundo	-12.0173
meharimish	-12.0174
▁layers	-12.0175
waweke	-12.0177
▁konda	-12.0177
juulikana	-12.0177
▁corpse	-12.0179
▁blowing	-12.0183
▁pasuka	-12.0183
▁consumed	-12.0185
▁relenting	-12.0194
pindua	-12.0194
▁groweth	-12.0195
▁ngoja	-12.0197
▁arouse	-12.0198
▁akikutaki	-12.02
▁chain	-12.02
▁reminding	-12.0202
▁mba	-12.0205
▁listeners	-12.0213
▁wapenda	-12.0215
▁nishukuru	-12.0217
▁naked	-12.0218
▁unfaithful	-12.0218
kiogopa	-12.0218
▁ukiwaon	-12.0224
meharibika	-12.0236
tambui	-12.0238
▁anaona	-12.0238
▁differing	-12.024
am	-12.0243
▁tulimpelek	-12.0248
▁zieleke	-12.0249
▁kukuta	-12.025
▁enrage	-12.0251
staajabu	-12.0255
▁contents	-12.0255
▁dealing	-12.0258
▁jini	-12.0268
▁conjectures	-12.0281
▁pekee	-12.0281
kihifadhi	-12.0282
▁nifanyi	-12.0283
▁khasirika	-12.0285
▁kuumb	-12.0289
▁kufisha	-12.0289
▁nadi	-12.03
shuhudiwa	-12.0306
▁hazi	-12.0308
▁ukazi	-12.031
jipanga	-12.0313
ogo	-12.0314
▁tukakufany	-12.0316
▁ayub	-12.0318
vikwa	-12.032
▁hawakufa	-12.0323
undi	-12.0324
varying	-12.0327
furahish	-12.0329
▁mwongozi	-12.0334
tasaidiwa	-12.0346
▁jaz	-12.0347
▁kumtakas	-12.035
tolee	-12.0358
▁attributes	-12.0359
▁wapiga	-12.036
bibi	-12.0364
▁ishak	-12.0365
kisoma	-12.0365
▁mtaion	-12.0373
▁chumvi	-12.0377
▁mapatano	-12.0377
tekelez	-12.0377
▁ahmad	-12.0377
▁chenu	-12.0378
▁nikimuasi	-12.0378
▁chepesi	-12.0378
▁hafi	-12.0378
vami	-12.0378
▁ganda	-12.038
▁yanatoka	-12.038
▁akamla	-12.0382
▁wasiwa	-12.0382
▁kujilinda	-12.0382
▁mumuabudu	-12.0385
▁wakipuuza	-12.0385
▁faraji	-12.0385
▁alipenda	-12.0386
▁kaf	-12.0388
badilishe	-12.0417
▁hifadhi	-12.0421
▁fails	-12.0428
▁wakapigan	-12.0431
shindwa	-12.0434
▁mkaingi	-12.0435
tengana	-12.0436
▁seizes	-12.0438
▁lipige	-12.0448
ajua	-12.0449
teni	-12.0451
▁zitap	-12.0453
its	-12.0453
which	-12.0461
▁tutawato	-12.0462
angels	-12.0466
ukaja	-12.0472
▁hatuw	-12.0481
▁kup	-12.0482
▁hisabiwa	-12.0487
▁zitum	-12.0488
waruzuku	-12.0495
▁wapigi	-12.0497
▁kuangami	-12.0497
▁kumhi	-12.0503
▁haitaku	-12.0505
angushi	-12.0507
▁anga	-12.0509
▁akakup	-12.052
▁hawako	-12.0524
yet	-12.0525
imondo	-12.0529
warded	-12.0529
▁kuahidini	-12.0535
▁atani	-12.0536
kole	-12.0536
▁tukamwach	-12.0538
ndoa	-12.0541
▁alight	-12.0546
being	-12.0546
▁kipand	-12.0558
tauona	-12.0562
kuhalalishi	-12.0569
kushawishi	-12.057
tamkuta	-12.0573
▁cleft	-12.0577
▁schism	-12.0578
▁burthen	-12.0579
▁fabrication	-12.0579
▁girl	-12.058
▁fool	-12.058
ndu	-12.0583
wacheze	-12.0588
▁contemplate	-12.059
▁tumewaja	-12.0593
sengenya	-12.0594
▁possibl	-12.0594
▁scorn	-12.0597
kusahaulish	-12.0603
▁fashion	-12.0603
▁deceiver	-12.0604
▁pluck	-12.0604
▁reap	-12.0605
▁mwacha	-12.0606
▁jikinge	-12.0607
▁alhamdulillah	-12.0608
▁serious	-12.0611
▁sex	-12.0611
▁unite	-12.0611
▁disdainful	-12.0612
▁assured	-12.0613
▁wrot	-12.0615
▁compuls	-12.0615
▁remorse	-12.0615
▁benevolence	-12.0615
▁constellations	-12.0615
▁cunning	-12.0615
▁driving	-12.0615
▁edict	-12.0615
▁expert	-12.0615
▁flagrant	-12.0615
▁generosity	-12.0615
▁hymn	-12.0615
▁inordinate	-12.0615
▁mvinyo	-12.0615
▁pattern	-12.0615
▁disgust	-12.0615
▁baggage	-12.0615
poromok	-12.0615
▁recover	-12.0615
▁credit	-12.0615
▁haroon	-12.0615
▁implore	-12.0615
▁radiant	-12.0615
uarrelling	-12.0615
▁eyesight	-12.0616
▁decayed	-12.0616
▁partnership	-12.0616
▁visitation	-12.0616
▁revere	-12.0617
▁restricted	-12.0617
▁joyful	-12.0617
▁tunakusimulia	-12.0617
▁adulter	-12.0618
▁goats	-12.0618
▁columns	-12.0618
▁earnestly	-12.0619
▁limetoka	-12.062
▁spot	-12.0621
▁fabricating	-12.0621
▁observing	-12.0621
▁houris	-12.0621
▁lilikuwa	-12.0621
▁taghut	-12.0621
▁faroff	-12.0622
▁atakuadhibuni	-12.0622
▁mwangu	-12.0622
▁mzee	-12.0623
▁harmful	-12.0624
▁enveloped	-12.0624
▁earnest	-12.0625
▁establishment	-12.0626
▁prisoners	-12.0626
winda	-12.0627
▁walifany	-12.0628
▁mfikie	-12.0628
▁useless	-12.0629
▁kulipiza	-12.063
▁trellises	-12.0634
▁sway	-12.0634
▁hew	-12.0637
▁exhorted	-12.0639
▁meant	-12.064
▁rulers	-12.0641
▁encompassing	-12.0644
▁doubters	-12.0645
elezeni	-12.0645
▁skin	-12.0646
▁muhsinun	-12.0646
▁drowning	-12.0649
▁chambers	-12.0649
▁retreating	-12.065
tuondole	-12.065
▁cl	-12.0651
▁erred	-12.0654
▁scattering	-12.0656
▁flying	-12.0657
▁kuacha	-12.0666
▁uturehemu	-12.0667
▁powerless	-12.0668
▁intentions	-12.0668
▁ant	-12.0672
▁bosoms	-12.0672
▁wounds	-12.0679
▁late	-12.0695
▁kulazimish	-12.0707
▁profited	-12.0713
▁teachings	-12.0713
▁troop	-12.0719
▁schemes	-12.072
▁shatter	-12.072
mie	-12.0722
▁errs	-12.074
salamu	-12.0742
▁pak	-12.0744
▁pe	-12.0748
▁kitaka	-12.0756
▁wakanusha	-12.076
fiche	-12.0765
keza	-12.0773
▁unaju	-12.0775
▁choyo	-12.0776
urudisha	-12.0777
▁performing	-12.0789
jiuzi	-12.079
▁kuhoji	-12.0793
pe	-12.0798
▁akiach	-12.0798
endaye	-12.0805
▁precede	-12.0805
▁nifuata	-12.0813
▁rises	-12.0815
▁waji	-12.0815
▁khi	-12.0817
▁permit	-12.0821
▁akaanz	-12.0822
submitting	-12.0824
▁ukim	-12.0828
▁wests	-12.0831
▁furahi	-12.0832
▁delights	-12.0853
fedheheka	-12.0856
pumua	-12.0859
▁sudusi	-12.0859
▁suluhu	-12.0859
teleza	-12.0866
▁muf	-12.0871
▁stretches	-12.0876
ondoe	-12.0877
▁sighted	-12.0887
▁reforms	-12.0889
▁mpata	-12.089
ingilian	-12.0892
muuliza	-12.0896
▁lik	-12.0903
▁saiba	-12.0904
▁pledges	-12.0905
watoa	-12.0907
▁hatutaku	-12.091
▁kupig	-12.0913
▁sikieni	-12.0916
▁kukila	-12.0921
▁aliwa	-12.0923
▁lift	-12.0924
▁hawataku	-12.0925
takuonyesh	-12.0926
ukubwa	-12.0927
waje	-12.0932
lew	-12.0934
▁wanafurahia	-12.0934
▁rudini	-12.0935
▁anakuonye	-12.0937
ishiwa	-12.0944
ufuata	-12.0945
recall	-12.0955
should	-12.0955
▁mshirik	-12.0956
against	-12.0957
▁kutuli	-12.0958
▁kuharimish	-12.0963
ageuk	-12.0968
▁kat	-12.0971
▁remov	-12.0984
▁kuwafany	-12.0994
koma	-12.0994
▁mpak	-12.0998
ushike	-12.1003
waitikia	-12.1005
▁amewapig	-12.1006
pangi	-12.1007
weke	-12.1015
uingilia	-12.1017
kukuta	-12.102
chana	-12.1027
kiangalia	-12.1031
▁push	-12.1034
▁boast	-12.1045
▁shuke	-12.1054
▁thir	-12.107
▁parchment	-12.1072
▁occur	-12.1073
▁comparison	-12.1073
▁offence	-12.1073
▁chamber	-12.1074
▁donkey	-12.1074
▁scroll	-12.1074
▁flock	-12.1075
▁traveler	-12.1083
▁stint	-12.109
ir	-12.1093
▁issues	-12.1094
▁inward	-12.1095
▁graze	-12.1101
▁exile	-12.1101
▁discern	-12.1102
chukiz	-12.1102
▁strip	-12.1109
urtubi	-12.1109
▁blemish	-12.1109
▁decorous	-12.1109
▁endurance	-12.1109
▁estimate	-12.1109
▁expulsion	-12.1109
▁impurity	-12.1109
▁offense	-12.1109
▁pomp	-12.1109
▁precinct	-12.1109
▁sabaeans	-12.1109
▁sanctify	-12.1109
▁suspicious	-12.1109
▁verdict	-12.1109
▁viceroy	-12.1109
▁forsooth	-12.1109
▁minister	-12.1109
▁raven	-12.1109
▁vanities	-12.1109
▁yathrib	-12.1109
▁oxen	-12.1109
▁haroun	-12.1109
▁shrink	-12.1109
▁supply	-12.1109
▁narrative	-12.1109
▁wakamchinja	-12.111
ism	-12.111
▁sinning	-12.111
▁anakijua	-12.111
▁fulfillment	-12.1111
▁repelled	-12.1111
▁beliers	-12.1111
▁baby	-12.1111
▁healthy	-12.1111
▁deferred	-12.1114
lodged	-12.1114
▁contention	-12.1114
▁anawaona	-12.1115
▁appropriate	-12.1115
▁muhajir	-12.1115
▁planets	-12.1116
▁spathes	-12.1116
▁clinging	-12.1117
▁hanif	-12.1117
▁kuwafukuz	-12.1119
▁hauja	-12.1121
▁constructed	-12.1122
▁health	-12.1123
▁eagerly	-12.1125
▁mnageuzwa	-12.1126
▁existed	-12.1128
▁assail	-12.1131
▁withered	-12.1132
▁pus	-12.115
ali	-12.1151
▁kadiriwa	-12.1153
▁ripe	-12.1159
▁abrogate	-12.1159
▁weighing	-12.1162
▁kuonea	-12.1169
▁sito	-12.117
viumba	-12.1173
▁include	-12.1173
ess	-12.118
akufanyi	-12.1185
▁haw	-12.1186
cheza	-12.1189
▁flash	-12.1198
▁kulind	-12.121
upambanu	-12.1214
▁tyrants	-12.1216
▁tuliwafany	-12.1222
▁ushirik	-12.123
▁atamwongo	-12.1231
▁inventing	-12.1233
▁recites	-12.1237
▁fufua	-12.1249
kudanganyeni	-12.1251
mzidishie	-12.1252
▁walked	-12.1256
▁aliwati	-12.1265
▁crush	-12.1269
ress	-12.1275
akarejea	-12.1278
upate	-12.1281
▁cherish	-12.1284
▁rass	-12.129
▁produc	-12.1291
zuili	-12.1299
▁tukuka	-12.1307
▁staying	-12.1308
adumu	-12.1309
▁matum	-12.1337
▁wanaya	-12.1338
▁argu	-12.1345
▁aspire	-12.1358
▁bahira	-12.1366
▁hamumchi	-12.1366
▁yaghuth	-12.1366
katia	-12.1367
▁likiwafik	-12.1367
iesa	-12.1372
arnaini	-12.1374
pendo	-12.1376
undu	-12.1377
rejez	-12.1379
▁kughufiria	-12.1382
▁msio	-12.1391
imiliki	-12.1396
▁mnakula	-12.1396
▁mmea	-12.1402
wn	-12.1409
mwongoa	-12.1413
okotwa	-12.1418
▁foods	-12.1419
▁dweller	-12.1423
▁tukawafuati	-12.1436
mah	-12.144
▁kushirikish	-12.1445
aitwa	-12.1447
▁kukanusha	-12.1448
kuambieni	-12.1459
each	-12.1461
▁tangaz	-12.1463
▁jee	-12.1469
kumbushe	-12.147
except	-12.1474
back	-12.1475
living	-12.1475
uate	-12.148
namsujudia	-12.1481
▁peaceful	-12.1492
▁shaurian	-12.1495
▁suit	-12.1503
▁nifanye	-12.1507
kisali	-12.1522
sikitik	-12.1537
wafukuz	-12.1544
enter	-12.1548
bakisha	-12.1548
sidhani	-12.1553
▁mens	-12.1562
mrehemu	-12.1563
hamia	-12.1566
tughufirie	-12.157
▁akawapa	-12.1581
▁trials	-12.1583
▁hit	-12.1583
kupandish	-12.1584
▁kumfany	-12.1585
hakimu	-12.1585
kupoteza	-12.1586
▁wakik	-12.1587
▁haitowa	-12.1588
▁mkiu	-12.1591
uarter	-12.1591
▁edge	-12.1592
▁spider	-12.1593
▁mkim	-12.1593
▁infidel	-12.1593
▁fornicat	-12.1604
▁roll	-12.1605
ri	-12.1608
▁profess	-12.1616
▁barter	-12.1618
▁reverse	-12.1621
▁mischievous	-12.1624
▁plough	-12.1629
arnayn	-12.1629
▁deceiving	-12.1629
▁handiwork	-12.1629
▁hoopoe	-12.1629
▁jibreel	-12.1629
▁summer	-12.1629
▁supremacy	-12.1629
▁contact	-12.1629
▁despondent	-12.1629
▁grazing	-12.1629
▁cruel	-12.1629
▁midday	-12.1629
▁winter	-12.1629
uility	-12.1629
▁hither	-12.1629
▁rivalry	-12.1629
▁heifer	-12.1629
▁zingatieni	-12.1629
uarrelsome	-12.1629
▁dishonour	-12.1629
▁lashes	-12.1629
▁unrighteous	-12.1629
▁immortality	-12.1629
▁poetry	-12.1629
▁tenderness	-12.1629
▁provoke	-12.163
▁lent	-12.163
▁fornicator	-12.163
▁almushrikun	-12.1631
▁outrageous	-12.1631
▁stopped	-12.1632
▁hill	-12.1633
▁greedy	-12.1633
▁sighing	-12.1633
▁dumu	-12.1634
▁borders	-12.1634
▁landmarks	-12.1634
▁deliverance	-12.1634
▁bridal	-12.1635
▁blaming	-12.1635
▁hamchi	-12.1635
▁additional	-12.1636
▁madinah	-12.1636
ropo	-12.1636
▁floating	-12.1641
▁caprices	-12.1643
▁somewhat	-12.1645
▁line	-12.1647
▁fairer	-12.1647
ufuate	-12.1647
▁wellwishers	-12.1651
andike	-12.1654
▁opponents	-12.1655
▁tukafuat	-12.1655
let	-12.1655
▁exception	-12.1657
▁addressed	-12.1662
▁chipu	-12.1664
▁inattentive	-12.1666
waonya	-12.1666
▁exulting	-12.1668
▁wachili	-12.1668
▁chastised	-12.1671
▁excused	-12.1671
wazidishia	-12.1672
▁dowers	-12.1674
▁amewafany	-12.1676
▁slanderer	-12.168
▁demanding	-12.1681
watende	-12.1685
▁ik	-12.1686
▁cheat	-12.1688
▁graciously	-12.1694
kubali	-12.1711
▁ordinances	-12.1722
▁perished	-12.1732
▁stalk	-12.1736
▁kubali	-12.1741
▁entit	-12.1741
▁pim	-12.1744
shamed	-12.1746
▁nzi	-12.1746
rikiana	-12.1752
fe	-12.1752
mkusudi	-12.1766
msujudie	-12.1767
wafikishi	-12.1772
iv	-12.1772
▁pursu	-12.1777
▁huju	-12.1787
▁unawao	-12.1794
ikia	-12.1796
didimia	-12.1807
▁wameumb	-12.1816
nearly	-12.1818
amekhasiri	-12.1819
chukuliw	-12.183
▁scorch	-12.1833
▁opening	-12.1839
cited	-12.1849
▁directions	-12.1851
zing	-12.1864
▁pollut	-12.1867
tengeze	-12.1873
▁mkopesh	-12.1877
limsahau	-12.1877
pelekwa	-12.1878
tari	-12.1881
ns	-12.1882
▁kusaidi	-12.1885
take	-12.1888
tumaini	-12.1894
▁speaker	-12.1896
▁kupumzikia	-12.1899
▁ondokeni	-12.1899
▁kutamb	-12.19
amirish	-12.1904
▁usij	-12.1905
▁mtanabahi	-12.1907
ngoje	-12.191
tetea	-12.1919
▁nimeon	-12.1919
▁yanam	-12.1919
▁kuweke	-12.1919
▁peleke	-12.1922
▁janaba	-12.1926
▁kumtegemea	-12.1941
▁safa	-12.1944
zra	-12.1947
potoa	-12.1954
ishia	-12.1963
▁injure	-12.1967
washuki	-12.1974
kikataa	-12.1974
▁ho	-12.1978
tunukie	-12.198
kunyaku	-12.1981
kapuuza	-12.1986
▁sab	-12.199
shuhudish	-12.2
▁fich	-12.2004
▁hukuon	-12.2006
▁ataji	-12.2014
aft	-12.2016
▁watimizi	-12.2018
▁worth	-12.2018
born	-12.2022
themselves	-12.2023
▁hupand	-12.2023
ibrahim	-12.2023
▁mbao	-12.2027
rank	-12.2032
▁pro	-12.2033
kutazama	-12.2034
▁tie	-12.2043
▁llah	-12.2044
high	-12.2051
▁y	-12.2056
sabihi	-12.2057
kar	-12.2064
meandik	-12.2071
▁mingle	-12.2076
▁waamini	-12.2084
▁embraces	-12.2101
mpigi	-12.2105
kee	-12.2105
▁uke	-12.2107
▁tutaya	-12.2111
▁zik	-12.2115
ila	-12.2127
▁kuzunguk	-12.2128
starehesh	-12.2135
▁suns	-12.2135
▁idol	-12.2139
▁sayings	-12.2141
▁precaution	-12.2141
▁row	-12.2141
▁dwellingplace	-12.2142
▁ukitu	-12.2144
▁tablet	-12.2144
▁utterance	-12.2144
▁declaration	-12.2146
ixed	-12.2146
▁lotetree	-12.2148
▁sum	-12.2161
▁ju	-12.2161
▁nourish	-12.2165
▁float	-12.2167
▁examine	-12.217
upofu	-12.217
▁ghaib	-12.2176
▁strait	-12.2176
▁drunk	-12.2177
hayatin	-12.2177
▁custom	-12.2177
declaring	-12.2177
▁desolate	-12.2177
▁deviating	-12.2177
▁encourage	-12.2177
▁fellowprisoners	-12.2177
▁herbage	-12.2177
▁phase	-12.2177
▁unfair	-12.2177
▁wondrous	-12.2177
bainishia	-12.2177
▁disrespect	-12.2177
▁subside	-12.2177
▁entice	-12.2177
▁almadinah	-12.2177
▁situation	-12.2177
▁partition	-12.2177
▁hudhud	-12.2177
▁tumble	-12.2177
▁instance	-12.2177
▁pact	-12.2177
▁justification	-12.2177
▁shift	-12.2177
▁anxious	-12.2177
▁shaking	-12.2177
▁imam	-12.2178
▁husk	-12.2178
uities	-12.2178
▁thoroughly	-12.2178
▁abyss	-12.2178
▁tighten	-12.2179
▁distribute	-12.2179
▁humankind	-12.2179
▁truthtellers	-12.218
▁statues	-12.218
inous	-12.2181
▁concluded	-12.2181
▁vicious	-12.2181
▁unlike	-12.2183
▁tired	-12.2183
▁associaters	-12.2183
mmunity	-12.2183
▁darkened	-12.2183
▁ago	-12.2183
▁exceedingly	-12.2183
▁conclusive	-12.2183
tries	-12.2184
▁asses	-12.2184
▁steadfastness	-12.2184
▁straiten	-12.2185
▁golden	-12.2185
▁yoke	-12.2186
▁withdrawn	-12.2188
▁rolled	-12.2188
▁striven	-12.2188
▁enraged	-12.2189
▁chokes	-12.2192
▁thief	-12.2192
▁fest	-12.2194
▁wajaribu	-12.2195
▁hail	-12.2201
▁stored	-12.2204
▁awake	-12.2204
▁forging	-12.221
▁block	-12.2211
▁offences	-12.2217
experienced	-12.2217
▁tulimu	-12.2218
▁watumia	-12.2223
kija	-12.2224
mrudisha	-12.2227
▁veiled	-12.2228
▁portions	-12.2229
▁watapa	-12.2248
gs	-12.225
uangamiza	-12.2253
▁mtegemea	-12.2253
rches	-12.2254
▁expended	-12.2255
▁pleading	-12.2255
▁raises	-12.2259
anze	-12.2259
▁mav	-12.2261
▁abas	-12.2264
▁exalting	-12.2267
▁descended	-12.2268
▁assurance	-12.2273
▁kuiti	-12.2283
ndisha	-12.2285
kufadhilish	-12.2286
▁sole	-12.2289
▁wakisiki	-12.2293
▁writ	-12.2296
hadharisha	-12.2298
▁lure	-12.23
▁pile	-12.2301
▁tumimi	-12.2301
▁poets	-12.2305
kuongoka	-12.2309
▁kani	-12.2316
▁hawatauliz	-12.2316
▁purifying	-12.2327
▁uttering	-12.233
kurehemuni	-12.2331
lier	-12.2332
▁chastises	-12.2339
▁wakaku	-12.234
▁muuw	-12.2341
kujueni	-12.2344
▁multiplie	-12.2344
nasoma	-12.2346
▁naj	-12.2353
▁havi	-12.2355
▁collapse	-12.2356
▁recording	-12.236
▁humte	-12.2368
tengezee	-12.2378
nde	-12.2381
▁lightly	-12.239
upimi	-12.239
▁yakumbuk	-12.2392
▁testing	-12.2403
kakataa	-12.2406
v	-12.241
▁abhor	-12.2413
▁kinak	-12.2422
sikudanganye	-12.2434
lewa	-12.2445
▁salsabil	-12.2462
▁haram	-12.2464
▁bakka	-12.2466
▁iram	-12.247
ring	-12.2473
zimia	-12.2475
ukuza	-12.2475
▁tormented	-12.248
▁msito	-12.2482
▁zaid	-12.2484
▁akakuja	-12.2486
▁niche	-12.249
tatoa	-12.249
developed	-12.2502
literemsha	-12.251
fudikiza	-12.2529
onekana	-12.2534
▁zul	-12.2535
▁observes	-12.2537
▁traverse	-12.255
fah	-12.2562
tajiri	-12.2568
turehemu	-12.2568
araka	-12.2571
▁mah	-12.2583
believers	-12.2588
uched	-12.2599
tapiga	-12.26
jizuia	-12.2601
[	-12.2602
alone	-12.2604
▁wakaji	-12.2605
indeed	-12.2607
red	-12.2608
▁hakutu	-12.2611
more	-12.2615
▁mounts	-12.2619
▁reli	-12.2621
▁mizi	-12.2622
▁hatawa	-12.2635
tazami	-12.2642
▁mtashind	-12.2645
cy	-12.2648
guu	-12.2656
kimpa	-12.2665
▁mmemu	-12.2667
hame	-12.2678
▁idea	-12.2682
▁msem	-12.2691
tuka	-12.2693
▁atai	-12.2695
sikuhuzunishe	-12.2695
▁awatakao	-12.2699
▁improve	-12.27
▁waanguk	-12.27
▁tumfany	-12.2708
uh	-12.271
▁hujaa	-12.271
▁plea	-12.271
wania	-12.2713
ridi	-12.2715
▁accusation	-12.2718
▁evildoer	-12.2721
▁invention	-12.2725
▁criminal	-12.2738
uiet	-12.2738
▁groan	-12.2743
▁overflow	-12.2743
▁anchor	-12.2745
▁train	-12.2746
▁blaspheme	-12.2747
▁degrade	-12.2749
lined	-12.2749
▁hil	-12.275
▁communicate	-12.275
▁bread	-12.2751
▁grudging	-12.2752
▁exultant	-12.2753
ombwa	-12.2754
▁enhance	-12.2756
▁loyal	-12.2756
▁null	-12.2757
▁contempt	-12.2757
▁allforbearing	-12.2757
▁arbiter	-12.2757
▁arose	-12.2757
▁camelload	-12.2757
▁chastising	-12.2757
▁conspiracy	-12.2757
▁eschew	-12.2757
▁firewood	-12.2757
▁inscription	-12.2757
▁luxury	-12.2757
▁neighbor	-12.2757
▁roam	-12.2757
▁shepherd	-12.2757
▁sincerity	-12.2757
▁straw	-12.2757
▁territory	-12.2757
▁testimonies	-12.2757
▁unfailing	-12.2757
▁welfare	-12.2757
▁knife	-12.2757
▁leaf	-12.2757
▁feast	-12.2757
▁maula	-12.2757
▁indigent	-12.2757
▁calamities	-12.2757
▁stolen	-12.2757
▁freedom	-12.2757
▁wellknown	-12.2757
temporary	-12.2757
▁exit	-12.2757
▁adore	-12.2757
▁dire	-12.2757
▁wearied	-12.2757
▁uncleanness	-12.2757
liness	-12.2757
▁finery	-12.2757
▁knot	-12.2757
duly	-12.2758
▁damned	-12.2758
▁intoxicated	-12.2758
▁rightminded	-12.2758
▁hutama	-12.2758
▁constraint	-12.2758
▁useful	-12.2759
shuke	-12.2759
▁vivi	-12.2759
▁radiance	-12.276
▁heedlessness	-12.2761
▁chins	-12.2762
▁malice	-12.2763
▁besieged	-12.2764
▁prophecy	-12.2764
uid	-12.2765
▁distracted	-12.2766
▁association	-12.2767
▁circumstances	-12.2767
elea	-12.2772
▁boasting	-12.2772
▁corruptly	-12.2773
▁designed	-12.2774
wazo	-12.2775
▁chained	-12.2778
▁wameridhi	-12.2779
▁swells	-12.278
▁shad	-12.278
unda	-12.278
▁glow	-12.2781
▁sternly	-12.2781
▁moulded	-12.2789
▁persevered	-12.2794
▁comparisons	-12.2799
▁contending	-12.28
▁disregarded	-12.2803
▁preached	-12.2803
▁wilful	-12.281
me	-12.2811
▁lote	-12.2815
▁yanaku	-12.2815
▁occasions	-12.2816
enu	-12.282
▁towers	-12.2821
▁variet	-12.2827
kidhulumu	-12.283
▁dhar	-12.2835
vuna	-12.2838
iba	-12.2839
▁succeeding	-12.2839
▁angered	-12.2839
▁salute	-12.2844
furahi	-12.2844
▁conceives	-12.2852
kuaminini	-12.2856
kariri	-12.2858
hik	-12.2858
▁builder	-12.2865
▁tumekup	-12.2869
▁uliza	-12.2873
▁speci	-12.2876
▁notice	-12.2885
kiwango	-12.2886
▁kuk	-12.2892
persistently	-12.2904
▁vex	-12.2907
▁wanaji	-12.2915
atu	-12.2938
▁enumerate	-12.2945
ure	-12.2948
tamki	-12.2956
▁misleader	-12.296
uring	-12.2963
msafi	-12.2968
rudishe	-12.2975
ongez	-12.2975
dhoofi	-12.2977
wed	-12.2995
▁hakum	-12.2996
▁epu	-12.3008
kujuulish	-12.301
▁chok	-12.3017
▁zion	-12.3021
▁pick	-12.3027
▁muwawe	-12.3035
itengeneza	-12.3036
▁makha	-12.3036
tesa	-12.3037
▁hamtam	-12.3041
itaki	-12.3041
▁mnavi	-12.3046
oub	-12.3046
niongoa	-12.3048
▁nayajua	-12.3049
mcha	-12.306
▁consum	-12.3064
pigi	-12.3065
▁ukam	-12.3067
▁longing	-12.3067
▁declares	-12.3068
▁tutawazidishia	-12.3075
▁mgeu	-12.3076
andikish	-12.3079
ish	-12.3092
▁strengthens	-12.3094
▁mtawa	-12.3102
▁preced	-12.3106
▁exclusi	-12.3109
▁kukup	-12.3112
kusameheni	-12.3113
▁fl	-12.3122
▁maintainer	-12.3131
▁hood	-12.3134
bakia	-12.3136
kind	-12.3139
takufa	-12.3149
she	-12.315
▁worshiping	-12.3151
tandaza	-12.3153
moto	-12.316
sadiki	-12.3162
▁witnessing	-12.317
tukuzw	-12.3175
▁yakam	-12.3179
hani	-12.3194
eka	-12.3195
kiabudu	-12.32
evil	-12.3208
specially	-12.3208
potoka	-12.3209
tanda	-12.3209
how	-12.3218
conduct	-12.3218
good	-12.3218
punishment	-12.3218
yusuf	-12.3218
pharaoh	-12.3218
ban	-12.3226
nza	-12.323
reward	-12.3233
▁atamu	-12.3235
fuatia	-12.3236
ghuri	-12.3237
▁lustful	-12.324
watazami	-12.3242
▁baal	-12.3255
tarajia	-12.3255
tapeleke	-12.3258
rejeshwa	-12.3259
kuza	-12.3262
▁simuli	-12.3276
▁includ	-12.3279
adhi	-12.3296
▁beholding	-12.3299
▁fleet	-12.3301
▁kuombe	-12.3302
▁wakakuta	-12.331
ingilieni	-12.3312
▁trick	-12.3322
ikishwa	-12.3322
▁cite	-12.3322
▁skill	-12.3325
▁fragment	-12.3325
▁trace	-12.3329
▁illusion	-12.3332
▁coral	-12.3335
▁arab	-12.3336
kate	-12.3337
▁warden	-12.3337
▁bit	-12.3338
wapenda	-12.3342
▁suck	-12.3343
ions	-12.3343
kushikili	-12.3347
▁exclaim	-12.3348
▁steep	-12.3348
▁c	-12.3349
▁chu	-12.3356
▁pretend	-12.3357
▁banish	-12.3361
▁harass	-12.3361
▁suggestion	-12.3362
▁stamp	-12.3363
▁harden	-12.3366
mshirikishe	-12.3367
▁plenteous	-12.3368
starehe	-12.3368
▁calculate	-12.3368
▁necessar	-12.3369
▁jealous	-12.3369
ixt	-12.337
mtaweza	-12.337
kusimulia	-12.3371
▁fake	-12.3372
reputable	-12.3372
▁betw	-12.3372
▁broad	-12.3372
▁almahfuz	-12.3372
▁animosity	-12.3372
▁ceiling	-12.3372
▁circumambulat	-12.3372
▁consign	-12.3372
▁dawood	-12.3372
▁ignominious	-12.3372
▁illiterate	-12.3372
▁persevering	-12.3372
▁ramadan	-12.3372
▁reassure	-12.3372
▁reputably	-12.3372
▁risala	-12.3372
▁separation	-12.3372
▁temple	-12.3372
▁votaries	-12.3372
▁defilement	-12.3372
▁entreat	-12.3372
▁slacken	-12.3372
▁beneficial	-12.3372
▁displeasure	-12.3372
▁gross	-12.3372
▁musk	-12.3372
▁snake	-12.3372
▁stability	-12.3372
▁foam	-12.3372
▁history	-12.3372
▁resume	-12.3372
▁inshaallah	-12.3372
kuhisabu	-12.3372
▁condemnation	-12.3372
▁vein	-12.3372
▁mobilize	-12.3372
▁wellpleasing	-12.3372
▁annoyance	-12.3373
▁smiled	-12.3373
▁ownself	-12.3373
▁avenger	-12.3373
▁puffed	-12.3373
▁sinned	-12.3374
▁garlands	-12.3374
▁deliberately	-12.3374
▁miss	-12.3375
▁untrue	-12.3375
▁filthy	-12.3376
▁fastened	-12.3376
▁miser	-12.3376
▁fury	-12.3377
▁grandson	-12.3377
▁consecrated	-12.3378
▁tombs	-12.3378
▁breathe	-12.3379
▁rabbil	-12.338
▁distribution	-12.338
cked	-12.338
▁overpowered	-12.3381
▁allgreat	-12.3382
▁castles	-12.3382
▁vindicate	-12.3383
▁joyous	-12.3383
▁bath	-12.3383
▁steady	-12.3383
▁msiya	-12.3385
▁anaji	-12.3385
io	-12.3385
iate	-12.3386
▁annoyed	-12.3389
▁clothed	-12.3389
▁honey	-12.339
▁shorten	-12.339
▁trained	-12.3391
▁rooted	-12.3393
▁reaped	-12.3394
▁inbetween	-12.3397
▁expanded	-12.3399
▁convenience	-12.34
▁bargaining	-12.34
▁schemed	-12.3401
mfa	-12.3405
▁displayed	-12.3407
kutupa	-12.3407
▁jesting	-12.3412
▁inter	-12.3413
▁kuende	-12.3414
▁gradual	-12.3416
rai	-12.3417
ilete	-12.3419
▁fabrications	-12.3419
▁befriending	-12.342
▁perfectly	-12.3421
▁fitnah	-12.3422
▁frustrated	-12.3423
▁formerly	-12.3425
▁assumptions	-12.3426
▁chooseth	-12.3427
mbwa	-12.3428
▁staring	-12.3431
▁dive	-12.3434
giving	-12.344
geuzwa	-12.344
ikeni	-12.3444
▁msinip	-12.3448
▁imetu	-12.3448
▁sevent	-12.3448
liko	-12.3449
aminish	-12.3453
▁reverting	-12.3454
▁hawali	-12.3455
shed	-12.3466
tafufuliwa	-12.3466
stic	-12.3473
▁shapes	-12.3477
pitishi	-12.3478
▁unat	-12.3482
▁mgus	-12.3489
ufishe	-12.3495
laani	-12.3508
▁aged	-12.3508
uku	-12.3511
mgusa	-12.3512
zai	-12.3516
ent	-12.3518
▁counting	-12.352
▁alharam	-12.3521
▁adding	-12.3524
▁inhabited	-12.353
▁repudiat	-12.3533
▁seeming	-12.3535
▁ukat	-12.3535
tua	-12.3541
milikii	-12.3553
▁tukak	-12.3556
▁watav	-12.3559
rejesha	-12.3562
kuamrish	-12.3563
▁surge	-12.3563
fananish	-12.3564
uwe	-12.3569
▁akamu	-12.3571
▁mnawal	-12.3577
mere	-12.3578
▁mtach	-12.3582
bui	-12.3583
▁yamewa	-12.359
▁msika	-12.3591
▁kusem	-12.36
fisheni	-12.3601
▁akapiga	-12.3607
▁prostrations	-12.3608
▁walizi	-12.3609
▁noise	-12.361
liwaangamiza	-12.3613
▁discourses	-12.3615
▁amewapa	-12.3615
nyoosha	-12.3623
▁feal	-12.3623
▁adornments	-12.3629
rn	-12.364
▁vime	-12.3642
isome	-12.3646
▁misleads	-12.3647
tumbukiz	-12.3652
▁kufariki	-12.3654
akujaribuni	-12.3659
rrible	-12.3682
ipuuza	-12.3683
▁handle	-12.3693
▁issu	-12.3702
▁aliku	-12.3711
pigani	-12.3724
yateremsha	-12.3726
hamu	-12.373
▁kuju	-12.3734
right	-12.3735
angelic	-12.3738
akhirishi	-12.3741
▁hami	-12.3746
finally	-12.3749
tetemek	-12.375
ndikeni	-12.3753
▁doubtful	-12.3754
▁wanaichuk	-12.3754
coming	-12.3757
▁amekuteremshi	-12.3762
mzuli	-12.3763
▁hencefort	-12.3772
fikishi	-12.3777
rudia	-12.3782
okot	-12.3784
sab	-12.3785
jimiliki	-12.3793
utengeneze	-12.3798
time	-12.3799
trayed	-12.3799
▁anamw	-12.38
▁circulate	-12.3802
kaanz	-12.3807
baji	-12.3807
▁reside	-12.3808
▁leg	-12.3809
kuhadithia	-12.3811
ambiw	-12.3815
wita	-12.3816
▁asij	-12.3823
▁envelop	-12.3828
▁atakufu	-12.383
▁image	-12.383
chuku	-12.3832
▁oblige	-12.3832
▁watakam	-12.3836
▁sikuku	-12.3842
kii	-12.3842
induka	-12.3842
isheni	-12.3843
▁msip	-12.3844
▁usim	-12.3845
zaa	-12.385
about	-12.3851
zana	-12.3852
ajiri	-12.3853
nongona	-12.386
usibu	-12.3861
▁uz	-12.3861
iliwa	-12.3861
zama	-12.3862
semeze	-12.3862
zingatia	-12.3862
mwache	-12.3866
▁kar	-12.3867
vipenda	-12.3868
alharam	-12.3871
inhabited	-12.3871
text	-12.3872
kupendeza	-12.3873
wabashirie	-12.3873
muhammad	-12.3874
such	-12.3874
nyooka	-12.3874
humu	-12.3874
firaun	-12.3874
through	-12.3875
hisabiwa	-12.3877
yatamani	-12.3878
watupi	-12.3878
dunia	-12.388
bariki	-12.3881
vika	-12.3881
kuongoeni	-12.3882
katika	-12.3883
thus	-12.3887
▁kitanda	-12.3887
ngojee	-12.3889
urge	-12.389
▁usii	-12.389
batil	-12.3894
abai	-12.3894
▁impious	-12.3897
litaje	-12.3903
▁amek	-12.3909
▁mnaji	-12.3909
isingi	-12.3913
meizua	-12.3914
abiri	-12.3915
teketez	-12.3918
watii	-12.392
▁akatengene	-12.3922
yayatik	-12.3922
juju	-12.3927
laumiw	-12.3928
▁lisi	-12.3934
ibisha	-12.3935
walishe	-12.3935
mkombo	-12.3937
inika	-12.3938
tushind	-12.3939
▁khalifa	-12.394
▁tutap	-12.394
▁niku	-12.3943
▁mza	-12.3946
asimuli	-12.3946
ngilia	-12.3948
▁ukaji	-12.3948
▁hawatam	-12.395
▁shu	-12.3951
kunja	-12.3952
▁mchung	-12.3952
▁hawape	-12.3953
▁mnawaona	-12.3954
alighi	-12.3954
tajeni	-12.3955
utawakuta	-12.3955
ks	-12.3956
▁waliji	-12.3958
wapunj	-12.3958
abia	-12.3959
kwazo	-12.3959
▁mtie	-12.3962
wish	-12.3964
ilieni	-12.3965
gomban	-12.3965
▁anakuwa	-12.3967
malizika	-12.3968
potofu	-12.3969
▁yamewapote	-12.397
▁ingoje	-12.3973
place	-12.3974
kakusanywa	-12.3975
ongofu	-12.3977
kuhani	-12.3977
▁hukata	-12.3978
▁aliwap	-12.3981
zilinde	-12.3983
▁couple	-12.3984
▁mnatu	-12.3984
▁atavi	-12.3985
guru	-12.3986
kuangamiz	-12.3989
▁lapse	-12.3991
▁orchard	-12.3992
▁type	-12.3992
▁torrent	-12.3992
▁highway	-12.3992
▁ruler	-12.3995
oma	-12.3996
alamu	-12.3996
▁nonarab	-12.3998
try	-12.4002
▁boil	-12.4004
▁watarudi	-12.4007
vumilivu	-12.4007
▁pili	-12.4008
▁uwanda	-12.4009
▁haiwaf	-12.4009
▁ndo	-12.401
wapoteze	-12.401
▁kicha	-12.4011
mkumbuke	-12.4014
▁accompany	-12.4015
▁hurry	-12.4015
▁character	-12.4015
▁apish	-12.4016
jihishimu	-12.4017
pumzika	-12.4018
meta	-12.4019
mchi	-12.4019
jihi	-12.402
kamwoko	-12.402
▁mtete	-12.402
hurumia	-12.402
timizwe	-12.4021
bakhili	-12.4021
bishi	-12.4021
▁mwache	-12.4021
▁survive	-12.4022
ival	-12.4022
kunjua	-12.4022
rundi	-12.4023
ahili	-12.4023
▁besiege	-12.4023
▁pungu	-12.4023
ema	-12.4023
▁decent	-12.4024
▁consecutive	-12.4024
▁embellish	-12.4024
ghorofa	-12.4024
ukunju	-12.4024
▁fig	-12.4025
utapig	-12.4026
akadiri	-12.4027
gunyika	-12.4027
teremshie	-12.4027
fundishe	-12.4027
fira	-12.4027
▁linger	-12.4027
▁vija	-12.4027
kasirikia	-12.4028
zingatie	-12.4028
dugu	-12.4028
guse	-12.4028
adhihirish	-12.4028
liyyin	-12.4028
▁unajiku	-12.4028
zungushi	-12.4028
▁uchi	-12.4028
akaribish	-12.4028
asogezwa	-12.4028
bururwa	-12.4028
iwahuzunuki	-12.4028
kunjwa	-12.4028
pambaukiwa	-12.4028
papatika	-12.4028
salimike	-12.4028
ufichiki	-12.4028
vuruga	-12.4028
wanakhitalifiana	-12.4028
yumbishe	-12.4028
▁atilasi	-12.4028
▁bloodmoney	-12.4028
▁busara	-12.4028
▁capital	-12.4028
▁chambuliwa	-12.4028
▁dasturi	-12.4028
▁decorated	-12.4028
▁descent	-12.4028
▁despicable	-12.4028
▁elbow	-12.4028
▁enslav	-12.4028
▁falsifiers	-12.4028
▁fortunate	-12.4028
▁furnace	-12.4028
▁guarantee	-12.4028
▁hawaelewi	-12.4028
▁hawajagusana	-12.4028
▁hawajivuni	-12.4028
▁hawarejei	-12.4028
▁ikhlasi	-12.4028
▁kaburini	-12.4028
▁khamsini	-12.4028
▁kufahamika	-12.4028
▁kuipotosha	-12.4028
▁kukuridhish	-12.4028
▁kuwatawalia	-12.4028
▁ledger	-12.4028
▁magnificent	-12.4028
▁makwenu	-12.4028
▁manasara	-12.4028
▁mapepe	-12.4028
▁masjid	-12.4028
▁masokoni	-12.4028
▁measuring	-12.4028
▁mkristo	-12.4028
▁monument	-12.4028
▁msifarikiane	-12.4028
▁ngolewa	-12.4028
▁nineteen	-12.4028
▁petition	-12.4028
▁proffer	-12.4028
▁semblance	-12.4028
▁surmise	-12.4028
▁tumekuweke	-12.4028
▁tunakusahauni	-12.4028
▁tyrannical	-12.4028
▁votary	-12.4028
▁wametupotea	-12.4028
▁whirlwind	-12.4028
▁wittingly	-12.4028
cumbers	-12.4028
ikathibiti	-12.4028
sagwa	-12.4028
▁slept	-12.4028
▁thicket	-12.4028
▁wenziwe	-12.4028
▁wiva	-12.4028
▁yavaa	-12.4028
ghadhibi	-12.4028
mfwati	-12.4028
▁akakufuti	-12.4028
▁khusika	-12.4028
▁kwema	-12.4028
▁mapambazuko	-12.4028
▁msirege	-12.4028
▁tuyasemayo	-12.4028
▁hakuzisikia	-12.4028
▁jahara	-12.4028
▁mapoke	-12.4028
▁micha	-12.4028
afaniki	-12.4028
mshindi	-12.4028
▁ailment	-12.4028
▁nut	-12.4028
▁vigilant	-12.4028
jishaua	-12.4028
▁annulled	-12.4028
▁forenoon	-12.4028
▁kujikombolea	-12.4028
▁kukamat	-12.4028
▁takri	-12.4028
simulie	-12.4028
▁kifo	-12.4028
aguzi	-12.4028
▁expedition	-12.4028
▁unhappy	-12.4028
▁tajiwa	-12.4028
▁vinaogelea	-12.4028
▁kuongezea	-12.4028
▁yataharibika	-12.4028
▁strategy	-12.4028
▁ionjeni	-12.4028
▁patupu	-12.4028
▁subhanallah	-12.4028
▁wakiyakejeli	-12.4028
▁mshuk	-12.4028
▁akim	-12.4028
▁moths	-12.4028
wapokony	-12.4028
yatimu	-12.4028
kiuke	-12.4028
▁gale	-12.4028
▁zitasawijika	-12.4028
▁betide	-12.4028
▁imewazunguka	-12.4028
▁karimu	-12.4028
kakamia	-12.4028
▁mumsaidie	-12.4028
▁chanika	-12.4028
▁inameni	-12.4028
▁matatu	-12.4028
▁remorseful	-12.4028
▁usiwahuzunikie	-12.4028
▁firdausi	-12.4028
▁kisima	-12.4028
▁atakalo	-12.4028
▁kukufitini	-12.4028
▁kuvizunguka	-12.4028
▁wanazipuuza	-12.4028
▁yakawadanganya	-12.4028
▁transaction	-12.4029
▁msinihizi	-12.4029
▁kikawa	-12.4029
▁repelling	-12.4029
▁ikaondolewa	-12.4029
▁hatawatakasa	-12.4029
▁maringo	-12.4029
▁kuzidhibiti	-12.4029
afoka	-12.4029
lichomozesh	-12.4029
hudhurisha	-12.4029
▁contribution	-12.4029
tamka	-12.4029
▁tukiyafanya	-12.4029
ushughulish	-12.4029
▁muundi	-12.4029
▁zitapasuka	-12.4029
▁mnanibashiria	-12.4029
▁hautok	-12.4029
▁atakufufueni	-12.4029
▁pevuka	-12.4029
▁disregardful	-12.4029
gofu	-12.4029
▁vyakula	-12.4029
▁stripes	-12.4029
▁wametakasika	-12.4029
▁mnawaogopa	-12.4029
▁contrive	-12.4029
▁kukuuwa	-12.4029
▁vingi	-12.4029
▁ungalipo	-12.4029
akureje	-12.4029
imamishe	-12.4029
▁ipotoke	-12.4029
▁ninety	-12.403
▁buru	-12.403
▁mafumba	-12.403
▁huifurahia	-12.403
▁majeuri	-12.403
▁involved	-12.403
▁violation	-12.403
▁hatawasamehe	-12.403
▁amewazunguka	-12.403
▁yamekup	-12.403
▁forcefully	-12.403
▁shy	-12.403
▁agreeable	-12.403
▁apply	-12.403
▁sirius	-12.403
▁medina	-12.403
▁tukavi	-12.403
▁hawajinusuru	-12.4031
▁salaam	-12.4031
▁ututi	-12.4031
okolew	-12.4031
khitilafiana	-12.4031
▁mayowe	-12.4031
▁kuvunwa	-12.4031
▁wakimkejeli	-12.4031
▁unconcerned	-12.4031
▁tutamlinda	-12.4031
▁nyingine	-12.4031
▁mikomamanga	-12.4032
uridhik	-12.4032
kufikilieni	-12.4032
▁wanaulizana	-12.4032
▁errand	-12.4032
▁waziri	-12.4032
yapendayo	-12.4032
▁hatomf	-12.4032
▁usivi	-12.4032
▁patwa	-12.4032
enty	-12.4032
▁anatutosh	-12.4032
miminwa	-12.4033
▁vigwe	-12.4033
maki	-12.4033
▁hutuomba	-12.4033
▁hamtanusuri	-12.4033
▁losing	-12.4033
stahili	-12.4033
▁malik	-12.4033
▁kujifakhirisha	-12.4033
▁status	-12.4033
▁kupunjwa	-12.4033
▁kuwasikitikia	-12.4033
▁kuharibika	-12.4033
▁tulimwongoa	-12.4033
▁conceited	-12.4034
▁miim	-12.4034
▁stumbl	-12.4034
▁kujisaidia	-12.4034
▁mwendani	-12.4034
▁dahari	-12.4034
istl	-12.4034
▁mkawauwa	-12.4034
▁strangl	-12.4034
▁endear	-12.4034
▁joyfully	-12.4034
▁kuiharibu	-12.4034
▁hawakumjua	-12.4034
▁mtarejea	-12.4034
▁akamchamngu	-12.4034
▁distract	-12.4034
▁kukuking	-12.4035
▁hawakufanyi	-12.4035
kuchoka	-12.4035
▁wameangamizwa	-12.4035
▁hawatashinda	-12.4035
▁softly	-12.4035
▁ubishi	-12.4035
▁kukuongozeni	-12.4035
▁hufurahi	-12.4035
▁akacheka	-12.4035
▁linatoka	-12.4036
▁wanajionyesha	-12.4036
▁tamba	-12.4036
▁subse	-12.4036
▁palatabl	-12.4036
▁confidence	-12.4036
▁kizuri	-12.4036
▁hamjawa	-12.4036
hizika	-12.4036
▁upogo	-12.4036
uislamu	-12.4036
obea	-12.4037
▁huvi	-12.4037
▁mpotee	-12.4037
▁mwenzie	-12.4037
kukiandika	-12.4037
▁fuatili	-12.4038
hakikishe	-12.4038
▁befitting	-12.4038
▁kufuatia	-12.4038
▁hawaogopi	-12.4038
nigusa	-12.4038
▁nitampata	-12.4038
▁akanadi	-12.4038
▁hakuki	-12.4038
▁mkimsafi	-12.4038
▁mtengenezaji	-12.4038
ulipe	-12.4038
▁mpendavyo	-12.4038
nyongony	-12.4039
▁hutompat	-12.4039
▁umejaa	-12.4039
▁kushambulieni	-12.4039
▁utamfik	-12.4039
ponyoka	-12.4039
▁relat	-12.4039
▁yanatu	-12.404
▁mnadai	-12.404
▁jifakh	-12.404
▁tukawateuwa	-12.404
▁ikapa	-12.404
▁kuonekana	-12.4041
▁hayaja	-12.4041
▁confined	-12.4041
▁maagano	-12.4041
suggestions	-12.4042
▁bartered	-12.4042
▁imedhulumu	-12.4042
▁mkadhani	-12.4042
atasi	-12.4042
▁marut	-12.4042
▁ujabari	-12.4042
▁relied	-12.4043
▁tukawaadhibu	-12.4043
▁ikau	-12.4043
▁mnaichukia	-12.4043
▁huvunji	-12.4043
usalimi	-12.4043
liwafiki	-12.4043
▁hukifany	-12.4043
▁waliikanusha	-12.4043
▁nyenginezo	-12.4044
▁mnaikanusha	-12.4044
husudu	-12.4044
▁utusamehe	-12.4044
endelee	-12.4044
▁mtachukua	-12.4045
▁lijua	-12.4045
▁ninge	-12.4045
▁itawafunika	-12.4045
▁mavi	-12.4045
▁nikujuulishe	-12.4045
pinzan	-12.4046
▁hawakukupig	-12.4046
▁mtakufa	-12.4046
▁mnastaajabu	-12.4046
▁alisahau	-12.4046
arisha	-12.4046
▁available	-12.4046
▁kuba	-12.4046
▁wapige	-12.4046
▁kulingan	-12.4047
▁anafisha	-12.4047
eshewa	-12.4047
▁wameumbwa	-12.4048
▁kumkhofu	-12.4048
▁husimama	-12.4048
hibu	-12.4048
▁hakutak	-12.4048
usomesha	-12.4049
▁particles	-12.4049
▁efface	-12.405
▁anasikia	-12.405
▁hawaijui	-12.405
▁tracks	-12.405
yakakudanganyeni	-12.405
ongeze	-12.4052
takuelete	-12.4053
mfikiri	-12.4053
▁mapig	-12.4053
zongwa	-12.4053
▁yatawapotea	-12.4054
▁ukame	-12.4054
▁mvi	-12.4054
▁wanaitaki	-12.4054
▁kubainiki	-12.4054
liane	-12.4055
nayapuuza	-12.4055
▁kujiepusha	-12.4055
lipe	-12.4055
▁kihimiza	-12.4055
▁magha	-12.4056
▁mengineyo	-12.4056
▁kukufaeni	-12.4056
▁tuwajaribu	-12.4056
▁tumeshuhudia	-12.4056
aombezi	-12.4056
irimu	-12.4057
▁inclinations	-12.4057
tiri	-12.4057
▁wakiuliza	-12.4057
▁mwanga	-12.4057
▁notification	-12.4058
iyafuat	-12.4058
▁akamkadiria	-12.4059
▁kuzidishiwa	-12.4059
▁practised	-12.406
▁tutawabadilish	-12.406
avyo	-12.4061
▁onions	-12.4061
▁mnasoma	-12.4062
▁hawahidi	-12.4062
khaaini	-12.4063
▁diverted	-12.4063
akuadhibuni	-12.4063
▁mchangany	-12.4063
▁zitaf	-12.4064
▁wanaziamini	-12.4064
▁mliji	-12.4064
▁frog	-12.4064
▁zichukua	-12.4065
▁marched	-12.4065
▁akajizuia	-12.4066
▁directly	-12.4066
▁kilete	-12.4066
▁tutangulia	-12.4066
▁utumwa	-12.4067
chote	-12.4068
▁wataiamini	-12.4069
ondokea	-12.4069
▁ameli	-12.4069
▁msukum	-12.4069
▁mkifa	-12.407
▁aikate	-12.4071
▁akaogopa	-12.4071
▁kuifikia	-12.4071
tundik	-12.4072
utafautish	-12.4073
▁choo	-12.4074
waidhika	-12.4074
▁hula	-12.4074
▁ikakush	-12.4075
▁wanajivuna	-12.4075
▁waandishi	-12.4076
tamsukum	-12.4076
▁kukuach	-12.4076
▁watashindwa	-12.4076
samehevu	-12.4076
▁tawanyik	-12.4076
▁altered	-12.4076
▁wakazikataa	-12.4076
nduliwa	-12.4077
okoka	-12.4077
▁hakifichik	-12.4078
▁watagawany	-12.4078
kunyoosh	-12.4078
▁purposely	-12.4078
▁yanawa	-12.4078
▁attempt	-12.4079
▁wakakusanywa	-12.4081
rifu	-12.4081
▁kuyabadili	-12.4081
▁hayam	-12.4083
wabeuw	-12.4083
▁stri	-12.4083
▁awatakase	-12.4083
▁wakashuhudia	-12.4084
▁kufuateni	-12.4085
kadhibishi	-12.4085
▁deafen	-12.4085
▁ampendaye	-12.4085
▁haitawafa	-12.4086
▁hawaahidi	-12.4086
▁rahani	-12.4087
▁meusi	-12.4088
angalizi	-12.4089
▁mmeghafilika	-12.4089
▁atawapa	-12.409
▁kutesa	-12.4091
▁hakita	-12.4093
▁wakut	-12.4094
▁limited	-12.4094
▁wanastahiki	-12.4097
▁kisi	-12.4097
kwao	-12.4097
▁liliwa	-12.4097
▁mdai	-12.4099
akifa	-12.41
▁wavi	-12.41
▁rules	-12.41
barikia	-12.4101
▁kulikuwaje	-12.4101
▁hawakubali	-12.4101
stareheshea	-12.4102
▁jigubika	-12.4104
hah	-12.4104
▁furika	-12.4104
▁bashiriwa	-12.4106
▁pambanuliwa	-12.4106
▁jumaa	-12.4106
▁naku	-12.4107
▁hait	-12.411
▁yayushwa	-12.411
▁heaps	-12.4111
▁mbizi	-12.4112
▁tuhidi	-12.4113
▁watafurahi	-12.4113
▁akakuta	-12.4113
▁hapatakuwa	-12.4114
lindw	-12.4114
▁yakach	-12.4115
yeusi	-12.4116
▁kijua	-12.412
kiongezek	-12.412
▁kuendeshe	-12.4121
▁wameharimish	-12.4121
▁wafe	-12.4122
▁tutali	-12.4122
laumiwa	-12.4123
▁furahani	-12.4123
▁ukikusibu	-12.4124
▁foes	-12.4125
▁mkitaka	-12.4126
▁kiko	-12.4128
▁burned	-12.4129
▁forelocks	-12.413
tatiz	-12.4133
▁akawakamata	-12.4133
▁sote	-12.4134
▁kujib	-12.4134
wapunja	-12.4134
yayatika	-12.4135
▁kuazimi	-12.4135
▁ukiku	-12.4136
▁awape	-12.4137
nyika	-12.4138
▁trespass	-12.4138
▁kuchu	-12.4139
katazi	-12.414
▁kugeuka	-12.414
▁wahame	-12.414
▁mkirudi	-12.4141
▁kijin	-12.4144
▁tutawap	-12.4151
shurutish	-12.4151
▁wazima	-12.4152
▁mridhia	-12.4153
▁mseme	-12.4153
▁nduguyo	-12.4154
▁tumewaelez	-12.4155
shall	-12.4155
yatakayo	-12.4155
▁tend	-12.4156
▁akamp	-12.4159
▁kasi	-12.4159
tutakuweke	-12.416
▁wakorofi	-12.4162
▁wadogo	-12.4163
wasimami	-12.4164
▁mawinguni	-12.4164
▁akusameheni	-12.4164
▁wayfarers	-12.4167
▁akauto	-12.4169
▁nitawaz	-12.4177
mwa	-12.4179
▁showers	-12.4179
lowly	-12.418
▁powers	-12.4181
▁juju	-12.4185
onyesh	-12.4186
▁nongona	-12.4188
▁waacheni	-12.4188
▁uwafikish	-12.4188
▁ombwa	-12.4189
▁waeneza	-12.4189
aonje	-12.4191
▁vitabuni	-12.4194
▁baru	-12.4195
▁bui	-12.4195
sinisemeze	-12.4197
▁wither	-12.4198
▁kuhani	-12.4199
unjana	-12.4199
▁niitia	-12.4201
▁wateuwa	-12.4203
kora	-12.4204
melaanika	-12.4205
▁mosi	-12.4206
upon	-12.4207
staha	-12.4208
pishan	-12.4213
▁wataangami	-12.4213
litangaza	-12.4214
▁excite	-12.4214
▁tukakuoko	-12.4214
▁nikumbuke	-12.4214
▁tulimti	-12.4216
▁jilinda	-12.4221
▁akahi	-12.4221
▁kumwag	-12.4224
▁avowed	-12.4225
unguzwa	-12.4229
▁tubbaa	-12.423
apia	-12.423
ikiwi	-12.423
▁withdraws	-12.4231
▁convers	-12.4232
▁hamtani	-12.4232
funz	-12.4233
▁mwoko	-12.424
utikisi	-12.424
▁hakuyateremsh	-12.4241
▁akakataa	-12.4243
▁kukusa	-12.4243
▁perpetrate	-12.4245
▁inawa	-12.4247
▁wasikiliza	-12.4247
▁attaining	-12.4248
▁tahadhari	-12.425
▁kaliwa	-12.4251
▁yahimiza	-12.4252
▁results	-12.4256
tumbuli	-12.4258
▁hawatengene	-12.4259
▁lingan	-12.4261
▁apendapo	-12.4264
b	-12.4264
▁asihuzunike	-12.4264
▁mpiga	-12.4265
▁unamwon	-12.4266
wekee	-12.4266
▁hakito	-12.4268
▁mtaja	-12.4268
▁mtukuze	-12.427
▁kumtak	-12.427
▁kukatazeni	-12.427
tukan	-12.4271
▁imewa	-12.4271
jiaminish	-12.4272
▁kufu	-12.4272
▁muusia	-12.4274
likitup	-12.4274
kipenda	-12.4278
▁departs	-12.4284
▁forgett	-12.4284
tutaingia	-12.4284
▁nitawap	-12.4287
uingize	-12.4288
nyonge	-12.4293
shamba	-12.4293
shikili	-12.4294
▁habit	-12.4294
▁tuwatakao	-12.4295
▁impute	-12.4297
▁kuwasikiliz	-12.4301
shughulikia	-12.4306
▁kutazama	-12.431
▁kilim	-12.431
▁uangamiza	-12.4312
▁vital	-12.4314
▁mati	-12.4314
▁wajuulisha	-12.4315
▁akwa	-12.4318
▁mete	-12.432
▁yaita	-12.432
▁kuteremsha	-12.432
▁tuakhirish	-12.4324
▁transgressions	-12.4331
toro	-12.4337
▁drops	-12.4338
▁mnak	-12.4338
▁ikalet	-12.4343
▁fix	-12.4344
▁mkitu	-12.4347
▁kipen	-12.4353
▁waited	-12.4353
▁kuandiki	-12.4355
w	-12.4356
▁kunusuruni	-12.436
▁sy	-12.4363
tutafufuliwa	-12.4366
▁mshukuru	-12.4367
▁hamja	-12.4367
aminini	-12.4372
▁agiz	-12.4373
▁kijahili	-12.4373
▁biblia	-12.4373
▁msiikiuke	-12.4373
▁thalathini	-12.4373
▁husisim	-12.4373
▁utaniona	-12.4373
▁uwakao	-12.4373
▁yafutili	-12.4373
▁zakaria	-12.4373
▁waunganisha	-12.4373
▁apendayo	-12.4373
wangoje	-12.4373
▁wanakungoje	-12.4373
▁kutafautisha	-12.4374
▁imewamiliki	-12.4374
▁kukufanyi	-12.4375
lioje	-12.4375
▁hamsemi	-12.4376
▁zimeharibika	-12.4376
▁kuyafikia	-12.4376
hidika	-12.4377
▁kuwapoteza	-12.4378
watangazi	-12.4379
▁mbe	-12.438
▁mirundi	-12.438
▁unataraji	-12.438
▁claims	-12.4381
▁halija	-12.4381
▁msichan	-12.4382
inif	-12.4383
▁utughufirie	-12.4383
▁kunongona	-12.4384
▁hatukuaminini	-12.4384
▁cu	-12.4387
awabadilishi	-12.4389
▁sijaku	-12.439
▁tumesilimu	-12.4391
▁hautakuwa	-12.4391
▁mfanye	-12.4392
flourished	-12.4392
▁tasks	-12.4393
▁akuonyeni	-12.4395
narudi	-12.4395
▁utawafiki	-12.4395
▁kumgusa	-12.4397
kiwashirikisha	-12.4398
tasamehewa	-12.44
ngiliwa	-12.4403
▁kupend	-12.4412
▁nitakuongoz	-12.4413
▁wanayaandika	-12.4416
proven	-12.4417
tukejeli	-12.4418
▁kutokea	-12.4419
▁haikufali	-12.4419
hard	-12.4422
watendavyo	-12.4425
▁tumewati	-12.4425
▁tukakuti	-12.4426
katulia	-12.4427
ichumi	-12.4428
aramu	-12.4429
▁hayape	-12.443
farikish	-12.443
▁fadhilish	-12.4431
▁wakutoe	-12.4432
▁kuamrish	-12.4434
▁iwazi	-12.4435
kutakasika	-12.4436
ngekuwa	-12.4444
wadhulumu	-12.4444
utupe	-12.4449
mwoni	-12.4449
mtumbukize	-12.4449
azimiwa	-12.4451
▁vyako	-12.4451
▁untruth	-12.4452
▁itandaza	-12.4453
tangulizi	-12.4453
▁alimteu	-12.4461
▁tufikia	-12.4468
▁ape	-12.4469
ukuliwa	-12.4469
tracts	-12.4473
▁prostrates	-12.4476
still	-12.4479
▁akataka	-12.4482
▁sav	-12.4483
kamua	-12.4484
kawapa	-12.4484
▁tawanya	-12.4485
▁ipas	-12.4487
shi	-12.449
baraza	-12.4492
▁enriche	-12.4493
▁dhihak	-12.4494
▁msiwao	-12.4497
halalish	-12.4498
▁msijit	-12.4498
▁linam	-12.4499
waumba	-12.4501
▁watatengan	-12.4506
iweze	-12.4508
▁kunjufu	-12.4511
meongoka	-12.4512
▁fakiri	-12.4522
▁kufanan	-12.4525
▁waingilia	-12.4531
tikis	-12.4532
know	-12.4536
fishe	-12.4538
▁cho	-12.4543
▁utters	-12.4543
▁nipa	-12.4546
▁amenifany	-12.4548
▁alitakalo	-12.4555
wape	-12.4555
mchamngu	-12.4556
kuhangaik	-12.4556
▁niya	-12.4558
▁uto	-12.4561
mkejeli	-12.4561
▁wanali	-12.4562
▁kuvu	-12.4565
mature	-12.4566
▁umepig	-12.4567
▁washwa	-12.4568
eyed	-12.457
false	-12.4571
ui	-12.4572
▁waitikia	-12.4573
mkanusha	-12.4574
among	-12.4576
because	-12.4576
▁kupunguz	-12.4578
▁mdhani	-12.4578
▁akigus	-12.4583
nakuwaidhi	-12.4585
▁wakawafuat	-12.4589
▁watende	-12.4589
tetemeka	-12.4591
tovu	-12.4593
▁tutao	-12.4595
kiwacheka	-12.4597
▁litaj	-12.46
zige	-12.4602
ious	-12.4603
akufisheni	-12.4605
▁wanakutak	-12.4608
nce	-12.4609
de	-12.4615
meandikwa	-12.4615
▁zuri	-12.4615
▁umewa	-12.4615
▁mkika	-12.4618
▁torments	-12.4618
▁dri	-12.4622
diwa	-12.4623
tumi	-12.4624
▁tunaki	-12.4625
chusha	-12.4633
kaja	-12.4638
kikugus	-12.4643
burudisha	-12.4643
▁beliefs	-12.4644
▁ufik	-12.4648
▁vibu	-12.465
▁debar	-12.4651
onder	-12.4652
▁wanazifany	-12.4653
holds	-12.4654
▁kuwafaa	-12.4656
▁tumewap	-12.466
▁mkasi	-12.4669
▁inuliwa	-12.467
▁washinda	-12.4671
tazamia	-12.4673
bie	-12.4676
siwa	-12.4685
▁kupat	-12.4692
▁preparation	-12.4693
▁throng	-12.4694
▁disagreement	-12.4694
▁opponent	-12.4694
▁horse	-12.4695
▁communication	-12.4695
▁successor	-12.4698
▁adviser	-12.47
▁admonisher	-12.47
mesilimu	-12.4701
▁huthibiti	-12.4704
embracing	-12.4704
leading	-12.4705
▁overwhelm	-12.4706
▁makusudi	-12.4709
wasikitiki	-12.4711
▁eavesdrop	-12.4712
afurik	-12.4715
▁stah	-12.4716
▁suggest	-12.4716
▁constrain	-12.4717
▁finish	-12.4719
▁siin	-12.472
▁compensate	-12.4722
▁prescribe	-12.4723
▁akiomb	-12.4725
▁appreciate	-12.4726
▁deposit	-12.4726
▁successive	-12.4727
▁zikaz	-12.4727
▁gloom	-12.4728
swerving	-12.4728
kijito	-12.4729
▁tire	-12.4729
▁dedicate	-12.4729
▁thrive	-12.473
vious	-12.473
▁gourd	-12.473
▁jisalimish	-12.473
tangulii	-12.473
▁adversary	-12.473
▁affluence	-12.473
▁akikupendezeni	-12.473
▁attitude	-12.473
▁caliph	-12.473
▁catastrophe	-12.473
▁constrict	-12.473
▁crazy	-12.473
▁degrading	-12.473
▁felicity	-12.473
▁grapevines	-12.473
▁jerusalem	-12.473
▁lurch	-12.473
▁obstacle	-12.473
▁oftrepeated	-12.473
▁plentiful	-12.473
▁plunging	-12.473
▁powder	-12.473
▁ramli	-12.473
▁repository	-12.473
▁responsive	-12.473
▁selfrestraint	-12.473
▁serenity	-12.473
▁tunnel	-12.473
▁ungodliness	-12.473
▁washuhudizieni	-12.473
▁watersprings	-12.473
▁wellversed	-12.473
▁commend	-12.473
▁facilitate	-12.473
▁falter	-12.473
▁physical	-12.473
▁courteous	-12.473
▁easily	-12.473
▁impart	-12.473
▁insert	-12.473
▁stakes	-12.473
▁kufeni	-12.473
▁activities	-12.473
▁prostitution	-12.473
▁raaina	-12.473
▁assemblies	-12.473
▁hungry	-12.473
▁evermerciful	-12.473
▁jilaumu	-12.473
▁slightest	-12.473
▁classes	-12.473
▁speck	-12.473
▁dazed	-12.473
seminal	-12.4731
▁monastic	-12.4731
▁flavour	-12.4731
▁disputation	-12.4731
▁rub	-12.4731
▁tunawakataa	-12.4731
▁perplexed	-12.4731
▁vifundoni	-12.4731
▁harshness	-12.4732
▁ihram	-12.4732
▁ankles	-12.4732
▁deviators	-12.4732
▁romans	-12.4732
▁cornfields	-12.4732
▁ugo	-12.4732
▁ardently	-12.4732
▁matamu	-12.4732
kunyoosha	-12.4732
▁divining	-12.4733
▁check	-12.4733
▁chema	-12.4734
▁lice	-12.4734
▁zipite	-12.4735
▁increasing	-12.4735
▁saint	-12.4735
▁markets	-12.4737
jishauw	-12.4738
▁sinfulness	-12.4738
▁salty	-12.4738
hurumiana	-12.4738
▁glorification	-12.4738
▁simple	-12.4739
▁vigil	-12.4739
▁unending	-12.4739
▁degraded	-12.4739
ipindua	-12.4739
▁communicated	-12.474
▁fingertips	-12.474
kipendacho	-12.474
▁ukingoni	-12.474
▁swelling	-12.474
▁atakurudish	-12.4741
▁mwenetu	-12.4741
▁assa	-12.4741
▁hordes	-12.4742
▁intensely	-12.4742
▁charm	-12.4743
▁total	-12.4744
▁hurrying	-12.4744
kuto	-12.4744
aliwa	-12.4745
▁machungu	-12.4745
▁resident	-12.4746
▁comparable	-12.4748
▁rolling	-12.4748
▁crushing	-12.4749
▁ml	-12.4751
▁governor	-12.4752
atili	-12.4753
▁darkens	-12.4755
▁provider	-12.4755
raced	-12.4756
▁nun	-12.476
kawi	-12.4761
▁separately	-12.4763
viwi	-12.4763
tal	-12.4765
onywa	-12.4766
kuitikieni	-12.4767
▁asserted	-12.4769
▁layer	-12.4771
▁skillful	-12.4772
ange	-12.4772
▁misguide	-12.4775
mpoteza	-12.4775
▁dwellingplaces	-12.4776
▁hufisha	-12.4779
jionyesha	-12.4779
ulieni	-12.4784
▁corrupted	-12.4784
▁ufuata	-12.4787
▁hakukufa	-12.4788
epusha	-12.4788
▁akatufa	-12.4789
▁kunyonyesha	-12.479
▁yanachu	-12.4791
▁invocations	-12.4792
▁msif	-12.4796
▁selling	-12.4798
▁hinderer	-12.4799
▁rods	-12.48
▁designs	-12.48
▁reckoners	-12.4801
▁per	-12.4801
kukunjuli	-12.4805
▁wakiwaomb	-12.4809
▁wagomvi	-12.4814
mdhihirishi	-12.4814
▁wazamisha	-12.4817
uitikieni	-12.4818
▁defect	-12.4819
▁wakifuata	-12.4821
▁liable	-12.4821
nder	-12.4821
uiting	-12.4822
itukufu	-12.4823
▁mmeharimi	-12.4831
▁tukawakusany	-12.4833
▁lita	-12.4833
▁anawap	-12.4833
akikugus	-12.4835
ily	-12.484
▁approves	-12.4842
▁wadhalili	-12.4844
▁nyen	-12.4844
lay	-12.4845
▁strongly	-12.4846
▁akin	-12.4849
▁tuk	-12.485
▁pambazu	-12.4855
▁lowered	-12.4857
▁apartment	-12.4861
likanushwa	-12.4861
nipa	-12.4862
▁hato	-12.4863
yaweka	-12.4866
▁ukiji	-12.4867
nifanyie	-12.4868
▁kutakasa	-12.4871
▁accordingly	-12.4872
▁abominations	-12.4876
tarejezwa	-12.4877
▁vilest	-12.4878
▁angamizwa	-12.4878
twe	-12.4885
afunge	-12.4885
▁mature	-12.4888
▁mfunulia	-12.4895
shikw	-12.4895
▁gawa	-12.4901
▁confident	-12.4902
tugus	-12.4905
▁chaos	-12.4906
▁stations	-12.4908
▁mwona	-12.4909
▁alikut	-12.4917
▁profane	-12.4919
▁reflected	-12.4921
▁undertake	-12.4922
▁caval	-12.4929
▁msikitini	-12.4931
▁sada	-12.4935
ujumu	-12.4936
▁yapanga	-12.4936
ungu	-12.4948
waona	-12.4949
▁tulika	-12.4951
▁wahitaji	-12.4951
kukanush	-12.4954
based	-12.4954
ale	-12.496
ate	-12.4961
▁makali	-12.4967
▁agent	-12.4971
ege	-12.4979
▁el	-12.498
▁wameelekea	-12.4981
▁kubaki	-12.4985
zaji	-12.4988
▁patakuwa	-12.4989
ugusi	-12.4993
ngana	-12.5009
mnywe	-12.5011
mbandik	-12.5012
sipigane	-12.5019
▁hawawao	-12.5019
▁lain	-12.5023
imie	-12.5024
kumiliki	-12.5024
kupendele	-12.5036
▁kufich	-12.5039
▁anawafun	-12.5039
▁mche	-12.5045
▁wakapig	-12.5056
▁dieth	-12.5056
ating	-12.5059
▁tuwafany	-12.506
▁jilind	-12.5062
structed	-12.5063
umwombe	-12.5064
▁unato	-12.5064
hojiwa	-12.5068
lifunika	-12.5069
uamini	-12.5071
▁zitawa	-12.5086
▁hatum	-12.5088
ubadilish	-12.5089
▁tutazi	-12.5091
nufaisha	-12.5099
▁zimefunikwa	-12.51
pressing	-12.5101
▁kitakujuvya	-12.5102
▁umtumikie	-12.5104
▁jumba	-12.5108
abated	-12.5109
iumbi	-12.5109
nyenyekevu	-12.511
zikata	-12.5111
jipa	-12.5111
▁hunayn	-12.5112
udhalili	-12.5114
▁wakajifunz	-12.5114
▁kutimia	-12.5121
▁mtaongoka	-12.5122
▁mvumilivu	-12.5124
icho	-12.5127
▁michache	-12.5127
▁ng	-12.5128
▁yapatanisheni	-12.5134
▁wadd	-12.5135
kuonjesh	-12.5135
▁amesamehe	-12.5135
▁hawakuwako	-12.5138
composed	-12.5144
▁suwa	-12.5149
▁mtaraji	-12.5157
▁kuusi	-12.516
tuiach	-12.5164
▁wenza	-12.5166
▁itoa	-12.5167
▁hijr	-12.5169
nikuta	-12.5172
▁akaziunga	-12.5173
geuziwa	-12.5175
ant	-12.5178
yapenda	-12.5178
▁muasi	-12.518
mshukuru	-12.5183
▁malip	-12.5185
▁punishing	-12.519
▁confide	-12.5193
▁hayatawa	-12.5195
▁onja	-12.5197
continuously	-12.5203
▁fanyi	-12.5206
▁niwezesh	-12.5207
aki	-12.521
▁watano	-12.5212
gh	-12.5213
▁purposes	-12.5218
iepushe	-12.522
▁mfu	-12.5221
ipunguz	-12.5222
mfuate	-12.5231
taking	-12.5233
kawakamata	-12.5239
jieni	-12.5241
▁wanamji	-12.5247
▁kukosea	-12.5249
▁watahudhuri	-12.5253
▁kutanguli	-12.5255
▁kurubi	-12.5261
wazidi	-12.5265
▁scornful	-12.5271
▁liwa	-12.5276
▁litu	-12.528
▁atawaja	-12.5281
ther	-12.5281
▁wakielekea	-12.5282
▁siwa	-12.5287
▁wanayafany	-12.5291
▁kataa	-12.5297
reserved	-12.5303
ilinde	-12.5304
▁waadhibu	-12.5305
▁yataka	-12.5306
▁su	-12.5321
set	-12.5326
▁kuchinji	-12.5328
revealed	-12.5331
child	-12.5331
instead	-12.5331
▁akawap	-12.5332
▁ami	-12.5333
another	-12.5338
age	-12.5339
▁kuambieni	-12.535
▁mag	-12.535
muelekeze	-12.5354
▁vin	-12.5357
excessively	-12.537
eneze	-12.5372
taongoka	-12.5374
tufu	-12.5384
▁liken	-12.5388
vi	-12.5388
tawazidishia	-12.5389
nijaali	-12.5392
▁mushrik	-12.5399
▁anani	-12.54
▁nasr	-12.5403
rut	-12.5403
▁kajaa	-12.5404
▁ending	-12.5407
nisamehe	-12.5415
uickene	-12.5418
anks	-12.542
nywa	-12.5421
▁fichi	-12.5424
▁ufufu	-12.543
cious	-12.5434
▁thi	-12.5442
▁drinkingplace	-12.5445
▁elephant	-12.5447
▁mnge	-12.5447
▁mnawafany	-12.5447
▁traitor	-12.5448
▁saddlebag	-12.5449
▁bedouin	-12.545
▁advanc	-12.5452
▁watalet	-12.5452
▁indign	-12.5458
▁wid	-12.5459
▁overpower	-12.5467
hewa	-12.5468
▁revolt	-12.547
bainishie	-12.547
▁unfold	-12.5474
atashika	-12.5475
▁observer	-12.5475
▁wamelaani	-12.5475
ulizo	-12.5476
▁anticipate	-12.5477
▁despise	-12.5478
▁inhabit	-12.548
▁fright	-12.5481
▁depend	-12.5482
▁calamit	-12.5482
gular	-12.5483
▁backbite	-12.5484
▁discuss	-12.5484
▁walimfany	-12.5485
pledging	-12.5485
▁ablaze	-12.5485
▁adversaries	-12.5485
▁allencompassing	-12.5485
▁behaviour	-12.5485
▁creep	-12.5485
▁cubits	-12.5485
▁disguise	-12.5485
▁dishonor	-12.5485
▁draught	-12.5485
▁entrails	-12.5485
▁evangel	-12.5485
▁hameem	-12.5485
▁haughtily	-12.5485
▁lecture	-12.5485
▁marudufu	-12.5485
▁nonsense	-12.5485
▁observance	-12.5485
▁onethird	-12.5485
▁sack	-12.5485
▁streak	-12.5485
▁trivial	-12.5485
▁unfortunate	-12.5485
▁unrolled	-12.5485
▁unzurna	-12.5485
▁busy	-12.5485
▁meditate	-12.5485
▁predetermined	-12.5485
▁michael	-12.5485
▁calculation	-12.5485
▁pegs	-12.5485
▁vegetables	-12.5485
▁theft	-12.5485
▁disputant	-12.5485
ualities	-12.5485
▁whitened	-12.5485
▁chaff	-12.5485
▁distraction	-12.5485
▁rubies	-12.5485
▁stem	-12.5486
▁hamim	-12.5486
▁bondwom	-12.5486
▁backbiter	-12.5486
▁dhu	-12.5486
▁emitted	-12.5486
▁expectation	-12.5487
▁mockers	-12.5487
▁nursing	-12.5487
▁godwariness	-12.5487
▁prosperers	-12.5488
▁beset	-12.5488
▁elde	-12.5488
▁outwit	-12.5488
▁attentively	-12.5489
▁forgetful	-12.549
▁grades	-12.549
▁arrayed	-12.5491
▁dazzled	-12.5491
▁warranty	-12.5491
▁wrathful	-12.5491
▁senseless	-12.5491
▁hung	-12.5492
▁displeased	-12.5493
▁tamarisk	-12.5494
▁altars	-12.5497
▁handsome	-12.5497
▁piled	-12.5498
▁cords	-12.5498
▁clemently	-12.5499
▁slit	-12.5499
▁tunategemea	-12.55
▁carved	-12.55
▁missed	-12.5501
▁amekusameheni	-12.5501
▁akawaogopa	-12.5502
▁aggressors	-12.5504
imekaribia	-12.5506
▁smell	-12.5506
▁bolt	-12.5507
▁treatment	-12.5507
▁strangers	-12.5508
▁lengthen	-12.551
▁illdeeds	-12.5513
▁mchuku	-12.5515
▁hawatakudhuru	-12.5517
▁tutau	-12.5519
yaabudu	-12.552
▁doubter	-12.552
ongozeni	-12.552
mfarikish	-12.5525
▁shut	-12.5531
▁um	-12.5531
▁wakiweza	-12.5533
▁repeated	-12.5533
▁lotetrees	-12.5535
rati	-12.554
▁contained	-12.5542
▁accumulate	-12.5544
▁delivery	-12.5547
▁contented	-12.5549
▁seemly	-12.5549
tamfufua	-12.5558
▁defame	-12.5558
hamish	-12.5559
▁khatia	-12.5565
mwagie	-12.5566
▁manat	-12.5567
▁wickedly	-12.557
akayo	-12.5573
▁kufisheni	-12.5579
▁wakatu	-12.5581
▁arrange	-12.5586
▁kusahau	-12.5589
▁yak	-12.559
idun	-12.5596
▁objects	-12.5597
▁traditions	-12.5597
▁strain	-12.56
▁laaniwa	-12.56
her	-12.5601
▁wen	-12.5601
▁summons	-12.5601
▁purest	-12.5602
hims	-12.5605
▁mtun	-12.5606
▁watchers	-12.5607
tangaze	-12.5613
▁deceitful	-12.5613
msahau	-12.5619
taonekana	-12.5621
▁multitudes	-12.5623
▁twa	-12.5628
nageuzwa	-12.5628
▁investigate	-12.5629
ikilia	-12.563
kukusanyiki	-12.5638
▁uti	-12.5639
▁kuuliza	-12.5642
▁threats	-12.5643
▁kutumi	-12.5645
▁mtumi	-12.5648
tisha	-12.565
▁enclose	-12.5656
here	-12.5662
▁watazi	-12.5664
kufurahishe	-12.5665
ibishan	-12.5673
muomba	-12.5674
▁masid	-12.5676
▁effects	-12.5677
▁corrupts	-12.5681
▁unawa	-12.5683
singe	-12.5696
▁amekuu	-12.5704
▁writings	-12.5706
▁manifestly	-12.5713
▁akiji	-12.5713
images	-12.5719
▁map	-12.5724
safa	-12.5728
▁encircl	-12.5729
pt	-12.5734
pointed	-12.5736
▁details	-12.575
▁usem	-12.5751
▁kukuji	-12.5757
▁enjoying	-12.577
▁hawakudhuru	-12.5776
▁mtap	-12.5776
▁freed	-12.5777
wakejeli	-12.578
▁mshik	-12.5782
▁justif	-12.5785
kasimama	-12.579
ifanye	-12.5791
wafudikiza	-12.5792
▁debate	-12.5793
▁main	-12.5799
▁akaki	-12.5801
▁hiliki	-12.5805
▁color	-12.581
▁usitufany	-12.5811
siwaweke	-12.583
kumjua	-12.5831
kuingilieni	-12.5843
▁tutakulete	-12.5846
pofu	-12.5847
▁hawatakufa	-12.5854
epo	-12.5861
▁liingi	-12.5862
itikie	-12.5865
anapiga	-12.5872
umu	-12.5885
▁ananitosheleza	-12.5885
▁alyasa	-12.5885
▁uzza	-12.5886
▁isikupate	-12.5887
▁ameiba	-12.589
▁tunaiamini	-12.5892
ivunja	-12.5892
▁slow	-12.5895
▁kuwaonya	-12.5897
▁walirudi	-12.5898
▁kuwasogeza	-12.5903
zaliwa	-12.5904
▁visions	-12.5918
▁supplicat	-12.5928
washughulish	-12.5928
ngukia	-12.5935
▁mkiwao	-12.5937
▁kuondosh	-12.594
waga	-12.5944
▁ameandik	-12.5947
▁nails	-12.595
ves	-12.5959
▁yasikuhuzunishe	-12.597
are	-12.5971
kashika	-12.5973
▁und	-12.5973
amrishe	-12.5981
▁retire	-12.5985
▁afflictions	-12.599
▁nikawap	-12.5999
namshirikisha	-12.6007
▁intervene	-12.6009
tched	-12.6015
▁mnau	-12.6028
ikata	-12.604
▁akakute	-12.6043
▁abodes	-12.6045
▁admonishes	-12.6046
taishi	-12.605
ichukia	-12.6058
▁tusinge	-12.6065
▁hidika	-12.6068
jifurahishe	-12.6069
▁raina	-12.607
▁manage	-12.6071
▁akujaribuni	-12.6072
wale	-12.6073
side	-12.6077
fanyie	-12.6078
ide	-12.6082
▁hawataach	-12.6087
▁nimeo	-12.6091
ones	-12.6099
rine	-12.6099
▁saad	-12.6102
reaching	-12.6106
onea	-12.6107
▁halt	-12.6107
mimini	-12.6113
f	-12.6143
▁replac	-12.6144
daughters	-12.6147
concerning	-12.6148
▁speed	-12.6148
truly	-12.6148
▁vifa	-12.6154
tuomba	-12.6157
linde	-12.6165
kikupat	-12.6169
women	-12.6172
again	-12.6176
▁kuot	-12.6176
seed	-12.6178
kufuata	-12.6185
once	-12.6191
junction	-12.6191
g	-12.6195
auspicious	-12.6196
▁tutato	-12.6209
rid	-12.6216
rave	-12.6221
wabainishia	-12.6231
▁reduc	-12.6238
▁hakulet	-12.6239
▁wameshik	-12.6241
▁forgo	-12.6242
sawijika	-12.6243
▁crie	-12.6258
▁offend	-12.6259
▁disappear	-12.6259
▁envie	-12.626
uf	-12.6263
▁inclination	-12.6266
mgeuzi	-12.6266
▁wellwisher	-12.6266
▁watakuta	-12.6266
iharimish	-12.6267
▁beseech	-12.6267
▁sacrific	-12.6268
▁oppressor	-12.6268
▁gossip	-12.6276
▁declin	-12.6278
▁ruh	-12.628
ywa	-12.6283
▁utoto	-12.6285
lic	-12.6287
▁ex	-12.6289
▁pelt	-12.6289
▁glid	-12.6289
▁crow	-12.6289
▁evict	-12.6291
achukia	-12.6291
wateketeza	-12.6294
timu	-12.6295
tapelekwa	-12.6296
▁atawati	-12.6296
▁reconcile	-12.6296
▁luxuriant	-12.6297
▁defiant	-12.6298
▁flag	-12.6298
rdon	-12.6299
▁couch	-12.6301
▁drow	-12.6301
▁gue	-12.6301
ichukua	-12.6301
▁harbour	-12.6301
stricken	-12.6301
▁illicit	-12.6302
▁accompanie	-12.6302
▁adverse	-12.6302
▁babylon	-12.6302
▁bucket	-12.6302
▁cooperat	-12.6302
▁devolve	-12.6302
▁discard	-12.6302
▁dominance	-12.6302
▁drinkingcup	-12.6302
▁embryo	-12.6302
▁exorbitance	-12.6302
▁fairytales	-12.6302
▁famine	-12.6302
▁farfetched	-12.6302
▁foliage	-12.6302
▁nicknames	-12.6302
▁onlookers	-12.6302
▁opportunity	-12.6302
▁perpetuity	-12.6302
▁privacy	-12.6302
▁profusely	-12.6302
▁recommend	-12.6302
▁spike	-12.6302
▁succumb	-12.6302
▁suspended	-12.6302
▁trinity	-12.6302
▁vault	-12.6302
▁gnat	-12.6302
▁clapping	-12.6302
sensible	-12.6302
▁abhorrence	-12.6302
▁disapproval	-12.6302
▁median	-12.6302
▁safeguard	-12.6302
▁thither	-12.6302
▁worry	-12.6302
▁importance	-12.6302
▁prince	-12.6302
▁testator	-12.6302
▁ladies	-12.6302
▁portal	-12.6302
▁shoes	-12.6302
▁departure	-12.6302
▁homeland	-12.6302
▁silence	-12.6302
▁disposition	-12.6302
▁venerate	-12.6302
▁undiminished	-12.6303
▁neverending	-12.6303
▁ordeal	-12.6303
▁consist	-12.6303
sitory	-12.6303
stuff	-12.6303
▁admonishment	-12.6303
ueror	-12.6303
▁vanishes	-12.6304
▁crusher	-12.6304
▁menses	-12.6304
▁survivors	-12.6304
▁bigger	-12.6304
▁gloomy	-12.6304
▁zijaali	-12.6304
▁guardianship	-12.6304
▁sowers	-12.6305
▁avarice	-12.6305
▁vehemently	-12.6305
▁conveyance	-12.6306
▁distressful	-12.6306
▁battlefield	-12.6306
▁dispenser	-12.6306
▁maghorofa	-12.6306
▁evillivers	-12.6307
uietly	-12.6307
▁intelligent	-12.6308
▁clarified	-12.6308
▁daylight	-12.6309
▁obliterated	-12.631
▁slavegirls	-12.631
▁wastefully	-12.631
▁farms	-12.631
▁saddened	-12.6311
▁graceful	-12.6311
▁cling	-12.6312
▁trifling	-12.6312
▁voluntar	-12.6312
▁aloft	-12.6312
▁ungratefulness	-12.6313
▁contentment	-12.6313
▁suggested	-12.6314
▁reformers	-12.6314
▁locks	-12.6315
▁wishful	-12.6316
▁skilled	-12.6316
▁regulates	-12.6316
▁crumbled	-12.6317
▁precepts	-12.6317
▁partisans	-12.6319
▁pavilions	-12.6319
▁attendants	-12.6319
▁fling	-12.6321
▁manager	-12.6321
▁erected	-12.6323
▁stealth	-12.6323
▁robes	-12.6325
siness	-12.6326
▁maids	-12.6327
▁forbiddeth	-12.6328
▁extinguished	-12.6328
▁links	-12.6329
▁fettered	-12.633
gods	-12.6331
▁mkaji	-12.6331
▁victims	-12.6331
▁heaped	-12.6333
▁folded	-12.6335
▁obliterate	-12.6337
▁described	-12.6338
▁utuuzimani	-12.6338
▁conspired	-12.6339
waombe	-12.6341
▁fist	-12.6341
▁orchards	-12.6347
▁torrents	-12.6347
▁rend	-12.6349
▁knots	-12.6353
▁contended	-12.6353
wendi	-12.6355
▁privil	-12.6355
▁bowl	-12.6356
mchom	-12.6356
▁bone	-12.6356
aongoka	-12.6357
▁marwa	-12.6357
▁seat	-12.636
▁anashik	-12.6365
▁harvested	-12.6366
▁tukawatum	-12.6371
▁wakawakanusha	-12.6383
▁slandering	-12.6383
▁mwi	-12.6384
takase	-12.6388
wapambanu	-12.6389
▁attentive	-12.6391
▁crowds	-12.6393
nge	-12.6394
▁yakamfik	-12.6396
achish	-12.6402
ateka	-12.6403
▁employ	-12.6405
▁az	-12.6426
▁flie	-12.6427
▁wakitu	-12.6427
ikombole	-12.6432
▁averting	-12.6439
▁yaweka	-12.644
ufanye	-12.6441
▁apprise	-12.6446
▁immortals	-12.6449
kirudi	-12.645
▁follower	-12.6452
llah	-12.6456
▁amemu	-12.6458
▁mpig	-12.6461
▁accepteth	-12.6461
▁nikam	-12.6463
▁fasts	-12.6465
adhini	-12.6467
▁pastures	-12.6483
▁avoiding	-12.649
eries	-12.6497
▁blows	-12.6499
▁scatters	-12.6499
saidiane	-12.65
▁buildings	-12.6505
▁rebels	-12.6514
ker	-12.6529
▁wakij	-12.6536
▁air	-12.6539
▁wanay	-12.6539
sahauli	-12.654
▁driver	-12.6544
▁hawasem	-12.655
juulikan	-12.6565
▁hujatu	-12.6575
▁watete	-12.6576
▁kitak	-12.6587
kimwona	-12.6591
▁wanaki	-12.6596
▁siji	-12.6597
▁ikamat	-12.661
dr	-12.6618
tafika	-12.6619
tuongoe	-12.662
washiki	-12.6621
▁mkata	-12.6624
▁dhalili	-12.6628
▁imekuji	-12.6633
▁chase	-12.6647
▁spiritual	-12.6648
rty	-12.6651
▁virtues	-12.6657
▁kis	-12.6659
▁heeded	-12.6671
meamini	-12.6675
▁sw	-12.6707
uogopeni	-12.6709
▁pearl	-12.6713
▁deserts	-12.6713
aziwa	-12.6726
ahangaik	-12.6728
kudangany	-12.6733
nakataa	-12.6735
▁tungi	-12.6741
▁tutarejea	-12.6744
▁doubl	-12.6747
mnadi	-12.6753
ge	-12.6773
▁hoji	-12.6777
likana	-12.6779
▁senses	-12.678
▁fo	-12.6791
▁nikawa	-12.6809
▁tunamwon	-12.6812
▁dispos	-12.6813
▁hakuvi	-12.6817
kejeli	-12.6822
tashindwa	-12.6823
▁kutumai	-12.6832
▁shot	-12.6833
▁measures	-12.6844
endo	-12.6853
▁kukush	-12.6858
ueni	-12.6859
els	-12.6862
▁stronghold	-12.6865
funze	-12.687
ulete	-12.6876
▁decisions	-12.688
tadhulumiwa	-12.6882
adidimia	-12.6887
▁kifuate	-12.6902
nts	-12.6914
kufisha	-12.6914
▁benign	-12.6916
▁wabebe	-12.6921
sikii	-12.6927
▁fertili	-12.6943
▁bake	-12.6957
kufunguli	-12.6959
kula	-12.696
mfuati	-12.6962
meshuhudia	-12.6968
▁tribu	-12.6968
▁mala	-12.7007
standing	-12.7027
can	-12.7032
assurance	-12.7035
yourselves	-12.7037
afraid	-12.7037
▁kuipote	-12.7038
▁kufadhili	-12.7039
disbelievers	-12.7039
ifanyi	-12.7042
bonde	-12.7043
during	-12.7048
navi	-12.7053
▁strengthene	-12.7074
goes	-12.7076
kiongoa	-12.7077
▁griev	-12.7082
▁ras	-12.7083
▁loll	-12.7084
▁tract	-12.7085
▁complet	-12.7086
izuilia	-12.7098
▁maku	-12.7113
tu	-12.7118
▁diver	-12.7121
▁unay	-12.7122
▁invok	-12.7123
mewapoteza	-12.7129
chipua	-12.7129
iomba	-12.713
▁advent	-12.7132
▁harmdo	-12.7135
▁mould	-12.7142
▁swell	-12.7143
▁celebrat	-12.7145
▁hurricane	-12.7151
▁indication	-12.7153
▁restriction	-12.7154
▁savior	-12.7154
▁crack	-12.7155
▁goblet	-12.7156
▁envoy	-12.7156
lets	-12.7156
▁needle	-12.7156
aondoa	-12.7159
▁dominate	-12.7165
kusome	-12.7166
▁span	-12.7167
▁conspir	-12.7169
▁raid	-12.7175
▁murmur	-12.7177
▁despoil	-12.7179
▁surpass	-12.718
▁transport	-12.7181
▁select	-12.7181
▁dress	-12.7182
▁match	-12.7182
▁inscribe	-12.7184
▁confuse	-12.7184
▁amuse	-12.7185
▁injil	-12.7186
▁dishonest	-12.7187
▁aggressive	-12.7187
▁furious	-12.7187
▁outrage	-12.7187
mfiki	-12.7188
▁suppli	-12.7189
▁drunken	-12.7191
emption	-12.7191
▁wrap	-12.7191
▁individual	-12.7191
▁monotheist	-12.7191
▁absorb	-12.7191
▁aliflamra	-12.7191
▁billow	-12.7191
▁breeze	-12.7191
▁clatterer	-12.7191
▁convincing	-12.7191
▁craving	-12.7191
▁eclipsed	-12.7191
▁empower	-12.7191
▁exorbitant	-12.7191
▁fodder	-12.7191
▁fowl	-12.7191
▁grey	-12.7191
▁harbinger	-12.7191
▁heavier	-12.7191
▁idolatry	-12.7191
▁inordinacy	-12.7191
▁msiogope	-12.7191
▁overstep	-12.7191
▁perseverance	-12.7191
▁recollect	-12.7191
▁relish	-12.7191
▁renown	-12.7191
▁seldom	-12.7191
▁selfsubsist	-12.7191
▁shueyb	-12.7191
▁sneak	-12.7191
▁splendor	-12.7191
▁standard	-12.7191
▁thunderclap	-12.7191
▁trail	-12.7191
▁unblest	-12.7191
▁unconscious	-12.7191
▁vicegerent	-12.7191
▁mantle	-12.7191
▁abdu	-12.7191
▁foothold	-12.7191
▁nullify	-12.7191
▁crumbling	-12.7191
▁damage	-12.7191
▁pool	-12.7191
▁propped	-12.7191
▁blunder	-12.7191
▁carded	-12.7191
▁tenderhearted	-12.7191
▁proclaims	-12.7191
▁conciliation	-12.7191
▁forcibly	-12.7191
▁hesitate	-12.7191
▁suppliant	-12.7191
▁enormity	-12.7191
▁regain	-12.7191
▁resentment	-12.7192
▁thornless	-12.7192
▁hardhearted	-12.7192
▁bowels	-12.7192
▁swimming	-12.7192
uiver	-12.7192
▁scoffers	-12.7192
▁compromise	-12.7192
▁estate	-12.7192
▁mild	-12.7193
▁eggs	-12.7194
▁mistaken	-12.7194
▁defie	-12.7194
▁allotted	-12.7194
▁notables	-12.7194
▁sarabi	-12.7194
▁stair	-12.7194
▁leap	-12.7195
▁blackness	-12.7195
birin	-12.7196
▁successively	-12.7196
▁judais	-12.7196
▁hurtful	-12.7196
▁complaint	-12.7197
▁sunder	-12.7198
▁remark	-12.7198
▁modesty	-12.7198
▁keen	-12.7199
▁kuund	-12.7199
▁subvert	-12.72
▁outstanding	-12.72
▁sharers	-12.72
▁breadth	-12.72
▁reconciled	-12.72
▁meadows	-12.72
▁planners	-12.72
kuingiz	-12.7201
▁friday	-12.7202
▁executed	-12.7202
▁answerable	-12.7203
▁disappeared	-12.7203
▁furthe	-12.7203
nashirikiana	-12.7203
▁conform	-12.7204
▁cleaner	-12.7204
▁minor	-12.7205
▁singly	-12.7205
▁faithlessness	-12.7206
▁sheets	-12.7208
▁hawatakawi	-12.7208
▁wrongful	-12.7209
▁lovers	-12.7209
▁anywhere	-12.7212
▁familiar	-12.7217
▁thorns	-12.7217
▁precisely	-12.7219
▁sai	-12.722
▁renounced	-12.722
▁cloaks	-12.722
▁herded	-12.7221
▁repeatedly	-12.7222
zihar	-12.7224
▁postponed	-12.7225
tavurumi	-12.7226
▁fainting	-12.7226
▁envies	-12.723
▁careless	-12.7231
▁healed	-12.7231
▁hakuku	-12.7231
▁iblees	-12.7232
▁luck	-12.7232
▁taunt	-12.7237
▁easie	-12.7238
▁distinguishing	-12.7238
▁boils	-12.724
▁couples	-12.7241
▁wink	-12.7246
▁inventions	-12.7248
sakin	-12.7249
▁aides	-12.725
▁spiders	-12.7254
sikilizish	-12.7255
▁anew	-12.7256
watajirish	-12.7258
▁wateremsha	-12.7264
▁wanapit	-12.7267
▁lessen	-12.7271
▁ignorantly	-12.7271
▁suspicions	-12.7274
▁wring	-12.7276
▁waonaje	-12.7277
▁list	-12.7278
▁sinfully	-12.7279
mkadhibisha	-12.7282
▁trellise	-12.7285
▁shar	-12.7285
▁instructions	-12.7288
▁seeker	-12.7291
robo	-12.7297
▁prohibits	-12.7298
jikombo	-12.7306
danganya	-12.7316
▁rein	-12.7316
▁wafiki	-12.7316
kazipuuza	-12.7317
inami	-12.7319
mtosha	-12.7321
umekuk	-12.7322
tupili	-12.7335
▁mistakes	-12.7339
bo	-12.7346
▁wasij	-12.7354
▁wanakuu	-12.736
▁legac	-12.736
ionyeshe	-12.7366
ote	-12.7371
▁waymark	-12.7371
▁traveled	-12.7373
▁refute	-12.7374
▁graces	-12.7376
▁walik	-12.7377
▁sadiki	-12.7378
kazifany	-12.7386
▁wanawash	-12.7399
kinyenyekea	-12.7402
inama	-12.7406
▁essen	-12.741
im	-12.7412
▁bands	-12.7416
ibadilish	-12.7418
▁nipo	-12.7424
men	-12.7425
punguzwa	-12.7427
▁kuwabadili	-12.7431
▁execute	-12.7439
▁secured	-12.7441
amekuteremshieni	-12.7442
▁rid	-12.7453
mini	-12.7459
▁stain	-12.7463
▁kukusany	-12.7464
▁receiver	-12.7472
elo	-12.7474
igeuk	-12.7479
▁meek	-12.7483
amlipa	-12.7494
▁steadi	-12.7495
ll	-12.7495
▁mtoa	-12.7502
▁troubles	-12.7509
▁mentioning	-12.752
▁mkit	-12.7521
▁warder	-12.7524
▁huwaj	-12.7524
▁folks	-12.7527
▁hawakukuji	-12.7528
▁uingi	-12.7529
▁ikak	-12.7534
ept	-12.7538
ezana	-12.7541
tawish	-12.7549
▁te	-12.7554
nipoteza	-12.7563
▁withers	-12.7568
gin	-12.7584
kitamani	-12.7588
itoe	-12.7592
een	-12.7594
silah	-12.7597
skin	-12.76
▁dig	-12.76
▁turudish	-12.7613
▁ikav	-12.7617
tun	-12.7617
▁nilio	-12.7623
wateka	-12.7623
azimia	-12.7639
▁mui	-12.7644
▁mt	-12.7645
puuz	-12.7649
▁abate	-12.7666
▁dhikr	-12.7667
shirika	-12.7669
▁repenting	-12.7682
▁br	-12.7685
▁jib	-12.7685
naichukia	-12.7701
▁haaru	-12.7703
▁zikatu	-12.7703
▁tuliwati	-12.7705
▁mash	-12.7705
chumi	-12.7708
ipo	-12.7709
▁nga	-12.771
▁wakiji	-12.7712
▁wanawap	-12.7717
utazame	-12.7726
▁remembereth	-12.7727
imetoka	-12.7728
▁kito	-12.7733
▁tukawafuat	-12.7737
limbik	-12.7741
[...]
